<unk>	0
<s>	0
</s>	0
.	-3.16777
s	-3.31734
▁the	-3.35505
,	-3.41522
▁of	-3.81069
▁a	-3.95421
▁and	-4.03441
▁to	-4.14008
▁is	-4.21923
▁in	-4.29817
▁	-4.77253
▁for	-4.9837
-	-5.02582
▁The	-5.09635
▁or	-5.12452
▁are	-5.18724
ing	-5.21465
▁(	-5.24228
▁that	-5.26358
ed	-5.35729
▁as	-5.46717
▁on	-5.51437
▁with	-5.5395
▁you	-5.54032
)	-5.62203
d	-5.64076
▁be	-5.6485
▁it	-5.66511
▁can	-5.66587
▁from	-5.67229
▁an	-5.68895
'	-5.68952
▁by	-5.71741
t	-5.73606
▁your	-5.76741
▁A	-5.85267
:	-5.85692
▁1	-5.9059
y	-5.92577
er	-6.02058
▁2	-6.05115
ly	-6.11091
▁at	-6.15059
e	-6.15428
al	-6.15483
▁have	-6.18763
a	-6.23619
▁which	-6.26857
n	-6.27074
▁not	-6.27632
▁was	-6.33916
▁In	-6.34375
▁3	-6.38645
▁It	-6.42593
▁will	-6.43178
).	-6.45027
▁this	-6.48944
▁also	-6.50651
▁one	-6.50907
or	-6.51411
▁more	-6.53041
▁has	-6.57047
r	-6.5754
in	-6.58751
▁per	-6.58847
▁other	-6.60681
▁I	-6.60841
▁used	-6.61228
es	-6.62752
’	-6.66827
▁may	-6.6707
▁about	-6.7014
▁than	-6.70352
▁average	-6.70538
▁most	-6.71702
▁name	-6.72297
re	-6.72471
▁cost	-6.73406
▁but	-6.73693
th	-6.76828
▁S	-6.77136
o	-6.77462
m	-6.78393
/	-6.79328
▁This	-6.84012
▁all	-6.84619
S	-6.86912
▁up	-6.87949
▁4	-6.88293
l	-6.90362
ic	-6.90633
C	-6.91041
▁they	-6.92788
▁what	-6.93065
g	-6.93258
▁into	-6.96266
▁their	-6.97871
▁body	-6.98017
▁when	-6.98319
i	-6.99317
▁C	-6.99705
p	-7.00241
;	-7.00284
▁blood	-7.01086
k	-7.02057
▁between	-7.02386
▁if	-7.03712
▁two	-7.04603
▁F	-7.04768
ation	-7.05028
▁If	-7.05189
▁time	-7.06903
▁B	-7.07131
c	-7.0974
le	-7.10806
▁water	-7.10893
▁re	-7.11571
▁called	-7.12075
▁such	-7.12934
▁year	-7.13475
▁first	-7.15657
▁years	-7.16936
▁do	-7.17004
▁use	-7.17036
▁its	-7.1747
an	-7.18405
▁over	-7.19104
▁out	-7.19157
▁For	-7.1953
▁some	-7.20061
▁how	-7.20248
),	-7.21487
▁19	-7.22738
▁so	-7.2418
▁E	-7.25007
▁people	-7.26541
▁5	-7.27391
us	-7.27647
en	-7.27721
▁system	-7.2812
P	-7.29627
▁only	-7.30355
▁who	-7.31055
▁many	-7.31912
on	-7.32432
ur	-7.3246
it	-7.33231
b	-7.35281
▁make	-7.36621
u	-7.37091
F	-7.37249
▁form	-7.37593
▁s	-7.3765
▁de	-7.38737
▁You	-7.39616
ion	-7.40145
▁cells	-7.40252
▁P	-7.40291
▁any	-7.40848
▁found	-7.41158
▁known	-7.43234
f	-7.43259
h	-7.435
▁get	-7.43952
▁like	-7.45278
▁10	-7.45491
▁D	-7.48282
T	-7.48588
▁usually	-7.4946
ers	-7.4984
▁there	-7.50201
▁type	-7.50414
2	-7.5086
▁part	-7.51183
▁should	-7.51419
ve	-7.51762
▁after	-7.51808
▁long	-7.51907
able	-7.51921
▁salary	-7.51924
▁common	-7.52003
D	-7.52058
▁Re	-7.52121
▁G	-7.52809
▁where	-7.5288
el	-7.52912
▁different	-7.53315
▁been	-7.53321
▁no	-7.53599
▁high	-7.53601
ra	-7.53894
▁much	-7.54436
▁through	-7.54471
il	-7.55158
ine	-7.55303
ia	-7.5536
A	-7.55676
▁day	-7.55784
▁made	-7.55911
M	-7.56022
▁disease	-7.56284
ar	-7.575
w	-7.58119
▁need	-7.58174
▁work	-7.5889
ll	-7.59669
▁often	-7.59875
▁does	-7.60052
▁To	-7.60175
at	-7.60412
▁An	-7.61205
▁6	-7.61264
▁food	-7.61888
to	-7.62427
B	-7.62546
▁around	-7.62576
▁T	-7.62649
▁each	-7.6268
▁U	-7.62919
▁these	-7.63865
▁days	-7.63957
▁very	-7.64044
▁take	-7.64189
li	-7.6461
▁were	-7.64635
▁well	-7.64743
▁include	-7.65393
▁number	-7.65402
x	-7.65552
ate	-7.65623
ment	-7.66093
▁...	-7.66561
▁example	-7.66903
▁he	-7.6722
E	-7.6726
▁new	-7.67333
▁cause	-7.67555
▁O	-7.68432
▁cell	-7.68717
▁temperature	-7.69006
▁There	-7.70642
▁we	-7.70758
▁then	-7.71409
▁them	-7.71691
et	-7.71845
▁small	-7.72378
ity	-7.72463
▁pay	-7.73087
st	-7.73135
▁his	-7.73148
um	-7.73757
▁un	-7.73882
▁range	-7.74199
as	-7.74332
▁M	-7.74814
ive	-7.74982
ce	-7.75051
4	-7.75134
▁would	-7.75471
▁home	-7.75476
▁less	-7.75906
▁just	-7.7592
age	-7.76145
id	-7.7633
ro	-7.76819
est	-7.76846
▁con	-7.7693
▁person	-7.77053
L	-7.77838
▁because	-7.7823
▁three	-7.78631
3	-7.78918
H	-7.78948
0	-7.78956
is	-7.7927
▁age	-7.80115
ol	-7.80315
ma	-7.8034
▁H	-7.80791
▁minutes	-7.81175
de	-7.81606
ter	-7.81618
co	-7.81664
ry	-7.82312
▁They	-7.8255
▁skin	-7.82575
▁18	-7.82833
▁hours	-7.82983
▁same	-7.83938
▁heart	-7.83972
lo	-7.84188
▁e	-7.84413
▁help	-7.84757
▁United	-7.84852
ary	-7.85395
the	-7.86722
▁while	-7.87293
▁When	-7.87333
▁area	-7.87862
O	-7.88519
”	-7.88588
▁costs	-7.88671
▁meaning	-7.88936
G	-7.8917
▁both	-7.89408
ent	-7.89507
▁process	-7.89661
▁state	-7.89681
▁before	-7.90034
N	-7.91089
▁“	-7.91366
▁States	-7.91389
▁under	-7.91463
,000	-7.91522
▁good	-7.91546
na	-7.92112
ne	-7.92262
▁me	-7.92311
▁during	-7.9246
ri	-7.93075
1	-7.93196
▁7	-7.93881
te	-7.94178
▁large	-7.94546
▁R	-7.94553
me	-7.95259
ian	-7.96054
ch	-7.96169
ge	-7.96393
▁energy	-7.96656
▁term	-7.96794
com	-7.96932
V	-7.97106
▁including	-7.97123
▁side	-7.9722
ant	-7.97519
▁back	-7.97673
▁muscle	-7.97726
▁amount	-7.98102
▁types	-7.98126
▁my	-7.98203
▁test	-7.98454
▁N	-7.9872
▁means	-7.99167
tic	-7.99212
la	-7.99522
▁our	-7.99831
▁important	-8.0001
ca	-8.00395
▁world	-8.00484
▁within	-8.00534
▁car	-8.00648
▁W	-8.00851
▁period	-8.01023
ous	-8.01151
▁rate	-8.01688
▁plant	-8.01773
▁K	-8.02023
▁way	-8.02176
ta	-8.02191
am	-8.02315
▁square	-8.02342
▁pain	-8.02378
op	-8.02407
6	-8.02482
im	-8.02688
v	-8.02774
▁end	-8.02805
▁20	-8.02994
▁information	-8.03142
▁down	-8.03549
▁8	-8.04113
ul	-8.04165
▁These	-8.0426
▁see	-8.0491
▁As	-8.05272
▁New	-8.05304
ir	-8.05838
▁co	-8.05876
▁percent	-8.05901
▁–	-8.0627
ies	-8.06372
8	-8.06487
▁hour	-8.06537
▁group	-8.0668
▁even	-8.06874
▁go	-8.06912
▁must	-8.0699
▁size	-8.07404
▁pro	-8.0748
mo	-8.08351
▁pre	-8.08556
U	-8.09654
5	-8.10004
▁American	-8.10544
▁foot	-8.106
▁price	-8.10976
▁want	-8.11353
▁12	-8.11533
▁had	-8.11576
I	-8.1207
ci	-8.12174
▁L	-8.12611
▁total	-8.12726
▁symptoms	-8.12776
7	-8.13073
▁p	-8.13463
▁using	-8.13553
sh	-8.14045
up	-8.14195
▁place	-8.15183
▁t	-8.15293
▁until	-8.1537
R	-8.15652
9	-8.15839
▁being	-8.16251
▁15	-8.16498
▁level	-8.16536
▁oil	-8.16613
ist	-8.17028
ance	-8.17029
▁last	-8.17294
se	-8.17486
▁life	-8.17695
▁species	-8.17837
▁DNA	-8.17873
▁caused	-8.18028
▁-	-8.18045
▁located	-8.1805
pe	-8.18286
▁b	-8.18317
▁non	-8.18391
▁right	-8.19339
▁De	-8.1936
▁health	-8.19597
▁Some	-8.20282
▁low	-8.2029
▁job	-8.20494
▁normal	-8.20562
▁below	-8.20713
▁lower	-8.20796
▁'	-8.20804
▁best	-8.20838
▁$1	-8.2101
ad	-8.21121
▁feet	-8.21318
ism	-8.21634
K	-8.21644
ness	-8.21667
▁those	-8.21999
and	-8.22187
▁He	-8.22211
!	-8.22576
▁Most	-8.2284
▁30	-8.22991
ut	-8.23101
▁g	-8.23317
▁sugar	-8.2333
▁So	-8.23656
▁c	-8.23921
▁months	-8.24144
ium	-8.24734
▁air	-8.24834
▁light	-8.25026
▁depending	-8.25055
▁degrees	-8.25094
▁four	-8.25229
▁However	-8.2529
▁off	-8.25301
ated	-8.25396
▁brain	-8.2547
▁live	-8.2561
man	-8.25887
z	-8.26019
ot	-8.26313
ide	-8.26385
ating	-8.26484
di	-8.2651
▁few	-8.26516
▁based	-8.26535
▁infection	-8.26652
▁heat	-8.2677
▁m	-8.27079
ite	-8.27144
▁top	-8.27176
W	-8.27343
▁set	-8.27611
▁find	-8.27662
▁every	-8.27845
▁bacteria	-8.28386
▁another	-8.28528
▁baby	-8.28572
▁acid	-8.28713
ton	-8.28718
▁i	-8.29452
one	-8.29524
▁English	-8.2969
▁Ma	-8.29737
▁human	-8.29952
▁red	-8.30497
▁tissue	-8.30674
▁tax	-8.31556
00	-8.32028
ting	-8.32519
▁company	-8.32814
▁surface	-8.32959
▁don	-8.33243
▁plants	-8.33269
▁Me	-8.33762
▁protein	-8.3391
▁di	-8.33958
be	-8.33982
▁weeks	-8.3407
▁could	-8.34313
ac	-8.34488
▁dis	-8.34943
▁word	-8.34949
▁her	-8.34949
per	-8.35263
▁least	-8.35332
▁family	-8.3541
▁color	-8.35475
▁function	-8.35709
▁degree	-8.36
▁treatment	-8.36152
▁typically	-8.3633
▁experience	-8.36721
ill	-8.36734
▁know	-8.36803
▁main	-8.36894
▁9	-8.36948
▁V	-8.37159
▁several	-8.37257
▁condition	-8.37282
min	-8.37344
▁white	-8.37491
line	-8.3781
▁million	-8.37991
▁month	-8.37999
▁second	-8.38269
▁We	-8.38436
ti	-8.38561
▁order	-8.38987
▁become	-8.39317
▁causes	-8.39645
▁own	-8.39951
▁chemical	-8.40076
▁annual	-8.40116
ish	-8.40637
▁keep	-8.40643
▁without	-8.40714
der	-8.41006
va	-8.41298
ba	-8.41329
▁above	-8.41517
▁higher	-8.41544
▁control	-8.41568
▁On	-8.41824
ty	-8.42337
▁Li	-8.42411
▁sub	-8.42436
▁st	-8.42744
no	-8.43282
▁ex	-8.43306
ck	-8.43531
?	-8.43603
▁start	-8.43774
▁specific	-8.43886
he	-8.44193
▁Be	-8.44362
▁meat	-8.44382
▁[	-8.44495
▁foods	-8.4478
▁vary	-8.44913
▁single	-8.44968
▁weight	-8.45111
ward	-8.45144
ized	-8.45162
▁data	-8.45174
▁medical	-8.4526
▁1.	-8.45295
▁St	-8.4546
▁result	-8.45778
ag	-8.4622
ster	-8.46667
▁full	-8.46906
▁free	-8.47056
▁due	-8.47117
▁pressure	-8.47804
▁f	-8.47814
▁week	-8.47917
▁care	-8.48439
▁look	-8.48478
▁k	-8.49398
▁commonly	-8.49596
▁certain	-8.4969
ted	-8.49874
▁gas	-8.49898
ard	-8.49995
▁short	-8.50155
ke	-8.50283
ni	-8.50782
▁Co	-8.51132
▁generally	-8.51188
▁major	-8.5128
▁fat	-8.51381
▁location	-8.51506
▁business	-8.51629
ling	-8.51704
▁doctor	-8.51715
▁But	-8.51734
nd	-8.51786
▁--	-8.51876
▁contain	-8.5191
▁change	-8.5205
land	-8.52098
▁available	-8.52187
▁either	-8.52463
ha	-8.52626
tra	-8.52717
▁power	-8.52748
▁La	-8.52793
▁levels	-8.5283
20	-8.52919
▁grow	-8.5324
▁treat	-8.53272
▁now	-8.53556
▁according	-8.53658
▁similar	-8.53779
▁products	-8.53922
▁base	-8.54079
ga	-8.54099
mi	-8.542
go	-8.54382
ial	-8.54634
▁Al	-8.54795
▁origin	-8.54955
▁How	-8.55185
▁All	-8.55525
▁list	-8.55623
▁project	-8.55906
▁oxygen	-8.56345
▁mo	-8.56736
mp	-8.56793
▁considered	-8.56954
che	-8.57292
▁given	-8.57324
▁eggs	-8.57336
ie	-8.57785
bo	-8.58044
▁turn	-8.58082
▁check	-8.58168
▁old	-8.58486
▁Po	-8.58513
▁largest	-8.58931
▁salt	-8.59032
▁present	-8.59072
▁service	-8.59104
▁point	-8.59105
▁contains	-8.59132
▁&	-8.59526
os	-8.59916
▁credit	-8.59971
▁Le	-8.60046
▁cr	-8.60199
▁account	-8.60208
▁general	-8.6025
▁still	-8.60323
▁oven	-8.60379
▁school	-8.60704
ding	-8.60804
▁sometimes	-8.60886
▁100	-8.60939
▁Your	-8.60942
▁cancer	-8.61128
▁occur	-8.61192
▁Con	-8.61275
od	-8.61405
▁add	-8.61539
▁increase	-8.61641
▁mean	-8.61648
itis	-8.61732
Y	-8.61784
ex	-8.61802
ose	-8.61861
▁Ra	-8.61953
▁$	-8.62114
▁natural	-8.62121
lic	-8.62229
em	-8.6228
ase	-8.62364
▁d	-8.62389
ence	-8.62442
50	-8.62483
▁One	-8.62561
▁might	-8.62565
(	-8.6259
▁muscles	-8.62983
▁children	-8.62983
▁v	-8.63001
▁region	-8.63003
▁$4	-8.63095
▁plan	-8.63236
▁produce	-8.63307
▁provide	-8.63324
▁little	-8.63534
°	-8.6361
▁following	-8.63734
▁At	-8.63794
▁popular	-8.63809
▁o	-8.63817
▁child	-8.63908
▁fish	-8.64218
▁show	-8.64254
▁North	-8.64341
tion	-8.64379
▁standard	-8.64409
ator	-8.64411
▁land	-8.65151
▁program	-8.65496
▁structure	-8.65735
▁$5	-8.65837
oc	-8.65852
▁hard	-8.65944
▁material	-8.65947
▁earn	-8.66046
▁50	-8.66066
▁Pro	-8.66104
ph	-8.66354
▁early	-8.66596
▁parts	-8.66632
▁come	-8.66661
▁produced	-8.66868
un	-8.66908
40	-8.6712
▁Bo	-8.67207
▁along	-8.67225
▁income	-8.67266
ally	-8.67314
▁conditions	-8.67366
▁dry	-8.675
▁17	-8.67563
▁city	-8.67577
▁Ca	-8.67841
▁occurs	-8.68191
▁language	-8.68196
▁head	-8.68278
ka	-8.68294
▁—	-8.68491
▁left	-8.68516
▁miles	-8.68601
▁Mar	-8.68783
▁liver	-8.68819
way	-8.68843
tre	-8.68887
ver	-8.69074
▁And	-8.69164
▁five	-8.69194
ig	-8.69228
mon	-8.69263
▁variety	-8.69271
▁nerve	-8.69351
les	-8.6948
▁since	-8.69481
▁Earth	-8.69562
▁country	-8.69674
▁half	-8.69732
ak	-8.6988
▁prevent	-8.6991
▁run	-8.70017
▁fee	-8.70147
▁animals	-8.70379
con	-8.70424
▁Ro	-8.70619
▁Answer	-8.70757
lu	-8.7095
▁inches	-8.71214
10	-8.71404
ft	-8.71407
ology	-8.71438
▁government	-8.71557
▁approximately	-8.71644
ach	-8.71777
▁li	-8.71789
▁bo	-8.71818
▁forms	-8.72043
mer	-8.72054
▁areas	-8.72071
▁lot	-8.72075
▁too	-8.72093
▁Do	-8.72253
▁ma	-8.72436
▁takes	-8.72524
form	-8.72644
▁together	-8.72651
▁$3	-8.72694
▁move	-8.72736
▁carbon	-8.72739
▁sp	-8.72894
ative	-8.72942
▁bone	-8.73008
▁man	-8.73035
less	-8.73057
▁16	-8.73135
▁product	-8.73144
▁living	-8.73478
30	-8.73536
▁unit	-8.73728
▁eye	-8.73749
ight	-8.73749
▁40	-8.7381
▁cat	-8.73875
ip	-8.73928
ure	-8.73943
son	-8.74106
ten	-8.7424
▁support	-8.74337
▁Lo	-8.74386
▁women	-8.74695
▁ca	-8.74745
▁mg	-8.74827
▁line	-8.74831
▁Ba	-8.74882
▁US	-8.7509
▁With	-8.75161
om	-8.75193
▁Mo	-8.75233
▁pan	-8.75704
ning	-8.75711
▁associated	-8.75859
▁America	-8.75926
▁risk	-8.75928
▁median	-8.76129
▁sea	-8.76206
end	-8.76216
▁membrane	-8.76265
▁eat	-8.76332
▁cook	-8.76554
▁definition	-8.76585
ther	-8.76602
▁South	-8.76739
▁source	-8.76818
▁she	-8.76838
ran	-8.76941
▁give	-8.7705
po	-8.77076
▁chicken	-8.77142
▁According	-8.77256
▁14	-8.77267
▁charge	-8.77369
tin	-8.77409
▁length	-8.77471
do	-8.77697
ng	-8.77727
▁No	-8.77985
▁times	-8.7823
▁value	-8.7844
▁various	-8.78693
▁receive	-8.78749
▁fact	-8.79175
hi	-8.79188
▁hand	-8.79345
▁comes	-8.79387
rs	-8.79515
▁h	-8.79519
▁flow	-8.79792
▁local	-8.79837
▁open	-8.7992
▁case	-8.80036
▁field	-8.8047
▁$2	-8.80598
mit	-8.80709
▁simple	-8.80773
]	-8.80833
ile	-8.80834
ow	-8.80887
▁basic	-8.81137
io	-8.81222
▁What	-8.81239
▁pe	-8.81552
tro	-8.81651
pt	-8.81722
▁required	-8.81771
▁post	-8.81801
▁en	-8.81812
▁cases	-8.81835
vi	-8.81854
▁hair	-8.81953
▁rock	-8.82016
▁population	-8.82066
bi	-8.82147
▁code	-8.82151
ron	-8.82216
pa	-8.82217
▁house	-8.82219
▁longer	-8.82319
▁Definition	-8.82631
▁return	-8.82669
tri	-8.82733
▁making	-8.82797
▁cold	-8.83109
▁salaries	-8.83125
tu	-8.83402
▁layer	-8.83549
▁individual	-8.83791
▁wage	-8.83823
▁especially	-8.83846
▁men	-8.83847
▁movement	-8.84037
▁great	-8.84143
▁la	-8.84222
25	-8.84237
▁site	-8.84275
▁law	-8.84307
▁green	-8.8431
▁Ha	-8.8432
ho	-8.8432
▁/	-8.84406
▁Di	-8.84411
▁related	-8.84444
▁states	-8.84771
yl	-8.84942
ven	-8.85033
▁however	-8.85174
ring	-8.85392
ell	-8.85609
sion	-8.85671
▁growth	-8.85693
▁metal	-8.85696
▁money	-8.85758
▁put	-8.85827
▁here	-8.85884
▁done	-8.86013
▁depends	-8.86026
▁complete	-8.86033
▁highest	-8.86096
▁Ho	-8.86301
▁animal	-8.86408
que	-8.86811
▁Vi	-8.86833
▁=	-8.86849
▁paid	-8.86982
▁makes	-8.86992
▁room	-8.87052
▁wide	-8.87108
gu	-8.87127
▁fluid	-8.87164
▁affect	-8.87274
▁gene	-8.87279
▁female	-8.87503
ice	-8.87509
▁insurance	-8.87582
▁problems	-8.87726
▁disorder	-8.87813
▁six	-8.87846
▁Many	-8.87973
▁loss	-8.88003
▁course	-8.88051
ical	-8.8815
▁file	-8.88168
▁25	-8.88292
▁near	-8.88363
▁lo	-8.88377
▁date	-8.884
▁soil	-8.885
ny	-8.88767
▁24	-8.88914
▁travel	-8.88925
▁includes	-8.88939
▁Ta	-8.89031
–	-8.89106
▁sure	-8.89175
▁think	-8.89267
▁cut	-8.89318
▁position	-8.89532
▁diet	-8.89645
▁hot	-8.90078
▁That	-8.90107
▁Na	-8.90248
ions	-8.90424
let	-8.90584
▁dog	-8.90828
▁computer	-8.90829
5%	-8.90917
▁lead	-8.90956
▁better	-8.91007
▁$6	-8.91043
▁Pe	-8.91052
▁Cost	-8.91086
▁space	-8.91189
▁production	-8.91398
▁factors	-8.91404
ee	-8.9153
▁Greek	-8.91735
au	-8.91741
▁:	-8.918
ize	-8.91978
out	-8.92018
▁develop	-8.9203
ner	-8.92066
▁effects	-8.92098
▁season	-8.92197
▁call	-8.92252
▁hold	-8.92491
tal	-8.92502
▁physical	-8.92509
fe	-8.92568
▁bi	-8.92715
▁study	-8.93581
▁enter	-8.93625
▁damage	-8.93658
▁J	-8.93668
▁current	-8.93731
like	-8.94087
▁role	-8.94089
▁whole	-8.9418
▁center	-8.94186
time	-8.94287
▁create	-8.94403
▁ground	-8.94426
ru	-8.94521
▁By	-8.9453
▁enough	-8.94615
da	-8.9475
▁Other	-8.94903
ab	-8.94972
▁male	-8.95022
▁addition	-8.95175
▁anywhere	-8.95191
▁plate	-8.95439
▁milk	-8.95502
▁While	-8.95543
▁May	-8.95579
ful	-8.95629
▁comp	-8.95634
▁report	-8.95745
▁materials	-8.95857
▁public	-8.95922
ber	-8.96065
▁able	-8.96095
▁$7	-8.96145
ible	-8.96154
sa	-8.96255
▁fall	-8.96256
cle	-8.96428
▁rest	-8.96532
▁bar	-8.96601
▁services	-8.96622
▁break	-8.96626
▁patients	-8.96701
▁building	-8.96701
▁formed	-8.96772
lar	-8.96817
▁card	-8.96958
▁From	-8.97028
▁history	-8.97352
▁tree	-8.97379
▁born	-8.97418
▁daily	-8.97581
ens	-8.97644
▁2015	-8.97675
oma	-8.97676
▁se	-8.9776
▁national	-8.97788
▁60	-8.97793
▁things	-8.97841
vo	-8.97923
▁having	-8.97952
▁vi	-8.9805
▁estimate	-8.98253
▁black	-8.98287
ea	-8.98311
▁professional	-8.98358
side	-8.98401
—	-8.98548
▁against	-8.98563
▁deep	-8.98592
▁though	-8.98675
▁11	-8.98822
ep	-8.98976
▁require	-8.99002
▁class	-8.99064
nt	-8.99099
▁page	-8.99263
▁infections	-8.9934
▁interest	-8.99342
▁play	-8.99454
▁Sp	-8.99503
▁real	-8.9957
▁click	-8.99776
▁After	-8.99795
▁urine	-8.99814
▁Act	-8.9987
▁earned	-8.99904
▁always	-8.99907
▁strong	-8.99942
▁2014	-9.00199
▁possible	-9.00211
ue	-9.00307
king	-9.00325
▁spread	-9.00397
▁act	-9.00405
pi	-9.00493
▁inside	-9.00502
▁stomach	-9.00527
▁contract	-9.00537
▁symbol	-9.00687
ub	-9.00726
▁referred	-9.00828
ang	-9.00924
▁sa	-9.00961
ap	-9.01268
▁names	-9.01352
▁vitamin	-9.01437
▁primary	-9.01609
▁genetic	-9.01666
▁design	-9.01702
of	-9.01706
▁defined	-9.01765
▁among	-9.01859
ler	-9.01987
▁something	-9.02049
▁typical	-9.02077
▁central	-9.02096
▁egg	-9.02299
▁ch	-9.02314
ud	-9.02376
▁gland	-9.02491
lin	-9.02539
▁benefits	-9.02594
gen	-9.02822
ship	-9.0293
▁fiber	-9.03227
▁n	-9.03342
▁fl	-9.03349
ise	-9.03471
▁medium	-9.03494
ah	-9.03495
▁minimum	-9.03552
▁art	-9.03565
▁limit	-9.03678
▁dose	-9.03686
▁X	-9.03793
▁countries	-9.03851
▁calories	-9.03932
ER	-9.03938
tor	-9.03952
▁actually	-9.03955
▁hormone	-9.03977
▁uses	-9.04152
▁War	-9.043
▁protect	-9.0434
▁molecules	-9.04404
▁education	-9.04443
▁answer	-9.04526
▁cover	-9.04653
ities	-9.04742
lan	-9.04803
▁cooking	-9.04875
▁Pre	-9.04884
▁organisms	-9.04938
pro	-9.05037
▁br	-9.05045
▁development	-9.05213
▁clear	-9.05263
▁contact	-9.05295
▁healthy	-9.05305
▁Te	-9.0537
▁reduce	-9.05381
▁glucose	-9.05392
▁say	-9.05423
▁13	-9.05458
▁throughout	-9.05486
▁away	-9.05498
▁roast	-9.05518
60	-9.05532
▁additional	-9.05586
▁French	-9.05616
▁market	-9.05659
ze	-9.05688
80	-9.05693
ld	-9.05752
▁Of	-9.05771
▁medicine	-9.05867
▁warm	-9.05973
dy	-9.06043
▁working	-9.06503
▁war	-9.06519
▁effect	-9.06525
▁changes	-9.06551
▁useful	-9.06624
▁us	-9.0674
,500	-9.06765
▁Se	-9.06801
▁Ne	-9.0687
for	-9.06911
ction	-9.06922
▁+	-9.06923
▁provides	-9.06942
▁century	-9.06976
▁said	-9.07008
▁California	-9.07045
▁diseases	-9.07063
▁upper	-9.07103
val	-9.0715
▁le	-9.07159
act	-9.07182
▁appear	-9.07211
▁sun	-9.07225
▁See	-9.07266
cent	-9.07365
ger	-9.07386
▁Although	-9.07396
ox	-9.07435
▁mass	-9.07509
▁Car	-9.07539
▁results	-9.07547
▁My	-9.0757
▁refers	-9.0764
▁special	-9.07712
▁determine	-9.07868
▁far	-9.08027
▁next	-9.08078
red	-9.08096
▁once	-9.08155
mb	-9.08186
▁later	-9.0819
▁2013	-9.08284
fin	-9.08605
▁fees	-9.08692
▁wall	-9.08705
▁po	-9.08728
▁virus	-9.08813
▁Use	-9.08866
▁Average	-9.09011
▁cycle	-9.09018
▁tri	-9.09032
15	-9.0912
▁Add	-9.09167
our	-9.0923
▁quality	-9.09316
▁leaves	-9.09555
ole	-9.096
▁etc	-9.09743
▁arm	-9.09807
by	-9.09816
▁mi	-9.09945
▁Sa	-9.10197
▁(1	-9.10534
▁stay	-9.10555
ization	-9.10585
pp	-9.10614
▁difference	-9.10658
ral	-9.10713
cul	-9.10833
▁whether	-9.10878
▁km	-9.11016
▁remove	-9.11116
75	-9.11141
▁proteins	-9.11147
▁Latin	-9.11297
▁organs	-9.11426
oid	-9.11445
sis	-9.11463
▁did	-9.11494
▁Best	-9.11506
▁liquid	-9.11559
▁almost	-9.11565
eg	-9.11583
▁likely	-9.11601
▁th	-9.11685
▁larger	-9.11832
▁thyroid	-9.12122
▁inter	-9.12123
▁floor	-9.12499
▁book	-9.1251
▁particular	-9.12526
▁drug	-9.12648
▁cool	-9.12827
▁offer	-9.12836
▁table	-9.12907
ped	-9.12966
▁learn	-9.12986
▁Each	-9.13051
til	-9.13124
▁block	-9.13269
▁York	-9.13333
▁w	-9.13354
▁ago	-9.13365
▁Ex	-9.13403
▁trans	-9.13522
if	-9.13872
▁words	-9.13962
▁severe	-9.13993
▁equal	-9.1409
▁research	-9.14108
▁going	-9.14125
▁consists	-9.14199
▁pass	-9.14259
ations	-9.14291
▁direct	-9.14303
▁rare	-9.14388
.00	-9.14444
cre	-9.14537
12	-9.14579
▁ra	-9.14584
▁carry	-9.14617
▁death	-9.14617
▁sign	-9.14773
▁apply	-9.14812
▁nervous	-9.14837
▁game	-9.14979
▁internal	-9.1502
▁humans	-9.15076
▁$8	-9.15136
0.	-9.15176
▁Canada	-9.15193
▁Here	-9.15289
▁anti	-9.15382
▁pi	-9.15547
▁key	-9.15563
▁complex	-9.15586
▁score	-9.15689
▁college	-9.15704
▁poly	-9.15719
▁immune	-9.15823
▁perform	-9.15974
▁across	-9.16022
▁south	-9.16151
tes	-9.16208
▁joint	-9.1627
▁shape	-9.16384
·	-9.16417
we	-9.16503
▁ten	-9.16735
ants	-9.16764
X	-9.1677
▁needs	-9.16857
▁force	-9.16869
▁needed	-9.16885
tan	-9.16976
▁Meaning	-9.16992
gi	-9.17079
▁Y	-9.17143
▁Si	-9.17238
▁environment	-9.17257
▁itself	-9.17296
▁Australia	-9.17395
▁alcohol	-9.17567
▁breed	-9.17572
▁method	-9.17633
▁sound	-9.17662
▁terms	-9.17723
▁reaction	-9.17792
rit	-9.17932
▁0.	-9.17937
▁fast	-9.17939
▁cup	-9.17955
▁Ad	-9.18078
▁effective	-9.18091
nch	-9.18102
▁traditional	-9.18366
▁Gra	-9.18368
▁mouth	-9.18369
▁National	-9.18377
▁Island	-9.18417
▁vessels	-9.18457
▁stone	-9.18477
▁north	-9.18501
▁office	-9.18517
▁surgery	-9.18552
▁tissues	-9.18563
▁iron	-9.18648
▁safe	-9.18727
ability	-9.18764
den	-9.18815
▁World	-9.18879
▁brown	-9.1891
▁kidney	-9.18915
▁consider	-9.1895
▁build	-9.1899
▁Place	-9.19019
▁derived	-9.19028
ct	-9.19069
▁fo	-9.19312
▁inflammation	-9.19475
▁taken	-9.19495
▁social	-9.19548
▁kind	-9.19554
▁2012	-9.19692
▁Per	-9.19733
▁view	-9.19809
▁x	-9.19812
▁Mon	-9.19848
ple	-9.19868
▁why	-9.19983
▁height	-9.20005
hu	-9.20089
▁Also	-9.20125
▁close	-9.20137
▁Ph	-9.2014
▁practice	-9.2018
▁claim	-9.20187
ff	-9.20253
▁problem	-9.20285
▁procedure	-9.2029
▁network	-9.20446
▁wood	-9.20487
ps	-9.2051
▁solution	-9.20594
▁calcium	-9.20705
▁tell	-9.20765
kin	-9.20814
▁Europe	-9.2089
▁helps	-9.20922
▁soft	-9.20948
▁expect	-9.20989
▁feel	-9.21071
▁property	-9.21119
▁birth	-9.21137
mm	-9.21223
▁maximum	-9.21275
▁German	-9.21419
▁reach	-9.2144
▁ranges	-9.21512
▁cannot	-9.21599
fa	-9.21625
▁music	-9.21733
▁Th	-9.21737
▁gra	-9.21762
▁State	-9.21763
▁smaller	-9.21774
▁sc	-9.21778
▁read	-9.21786
nic	-9.21865
▁students	-9.22098
▁past	-9.2216
ging	-9.22249
▁ne	-9.22365
ana	-9.22428
wa	-9.22516
▁action	-9.2252
▁allow	-9.22532
▁industry	-9.22538
tter	-9.22594
fi	-9.22616
osis	-9.22684
cc	-9.22688
▁directly	-9.22849
▁lungs	-9.22879
▁organ	-9.22884
▁intestine	-9.2292
▁training	-9.22928
tain	-9.22929
▁image	-9.22964
▁maintain	-9.23198
▁University	-9.23331
▁speed	-9.23448
▁Africa	-9.23551
▁molecule	-9.23782
so	-9.23916
▁tend	-9.24065
▁First	-9.24218
▁object	-9.24237
▁document	-9.24289
int	-9.24362
▁seeds	-9.24424
▁tract	-9.24556
ified	-9.24723
▁yellow	-9.24924
ə	-9.24996
▁organization	-9.25036
▁outside	-9.25047
▁someone	-9.2506
▁brand	-9.2507
▁$10	-9.25084
▁composed	-9.25112
▁let	-9.25171
ever	-9.25285
▁extra	-9.25346
▁Z	-9.25369
J	-9.25441
▁noun	-9.25481
▁doesn	-9.25555
▁application	-9.25696
▁adults	-9.25737
▁Ka	-9.25782
str	-9.2584
▁flu	-9.25976
▁created	-9.25979
▁Im	-9.26047
pl	-9.2606
qui	-9.26129
ef	-9.26159
rr	-9.26243
▁blue	-9.26249
▁third	-9.2627
▁easy	-9.26293
▁activity	-9.26356
qu	-9.26417
▁earth	-9.26577
▁Salary	-9.26597
▁agent	-9.26719
▁ha	-9.26737
▁access	-9.26763
▁elements	-9.26839
▁seen	-9.26888
▁added	-9.27
hal	-9.27002
▁taking	-9.2704
nu	-9.27134
The	-9.27239
▁She	-9.27271
▁varies	-9.27286
za	-9.2733
▁bond	-9.27362
▁section	-9.27448
my	-9.27554
▁today	-9.27583
▁culture	-9.27594
chi	-9.27617
▁acids	-9.27642
▁model	-9.27667
▁Dr	-9.27707
ign	-9.27714
tru	-9.27793
▁RNA	-9.27815
▁nurse	-9.27831
▁imp	-9.27839
▁al	-9.27994
her	-9.28015
▁although	-9.28052
▁sh	-9.28061
▁bank	-9.28144
cy	-9.28199
▁21	-9.28256
▁element	-9.2835
ki	-9.28358
▁follow	-9.28379
row	-9.28503
▁really	-9.28519
▁works	-9.28671
▁star	-9.28676
set	-9.28694
▁fruit	-9.28739
▁clean	-9.28757
▁Fa	-9.28798
▁grams	-9.28835
▁substance	-9.28957
▁ho	-9.28982
▁San	-9.29032
▁systems	-9.29307
▁content	-9.29359
day	-9.29443
▁indicate	-9.29697
▁installation	-9.29708
▁front	-9.29766
▁functions	-9.29789
▁others	-9.29792
▁vehicle	-9.29797
▁active	-9.29862
▁store	-9.29932
▁measure	-9.29954
▁$9	-9.30217
+	-9.30469
▁am	-9.30495
▁face	-9.30564
▁visit	-9.30604
ual	-9.30635
men	-9.30704
▁payment	-9.30776
ists	-9.3085
▁figure	-9.30883
▁mu	-9.30914
▁separate	-9.3094
▁link	-9.30942
▁Bu	-9.30964
▁temperatures	-9.30986
▁Ri	-9.30997
▁legal	-9.31025
▁Go	-9.31055
port	-9.31074
j	-9.31103
▁drop	-9.31118
▁fi	-9.3122
▁cholesterol	-9.3125
▁serious	-9.31265
▁adult	-9.31407
▁gu	-9.31433
▁matter	-9.31562
▁response	-9.31589
▁middle	-9.31608
dic	-9.31616
▁responsible	-9.3162
▁share	-9.31682
bu	-9.31701
late	-9.31782
▁sources	-9.31793
▁Or	-9.31858
ble	-9.31884
use	-9.31952
▁probably	-9.31976
▁Jo	-9.31999
▁flavor	-9.32132
ologist	-9.32159
é	-9.32178
▁attack	-9.32397
▁simply	-9.32458
▁personal	-9.3248
▁labor	-9.32481
ew	-9.32512
▁Un	-9.32718
▁India	-9.32771
70	-9.32779
▁easily	-9.32786
ina	-9.32792
▁mountain	-9.32818
ax	-9.32838
▁Click	-9.32857
▁fuel	-9.32881
ray	-9.33024
▁fresh	-9.33064
▁essential	-9.33082
und	-9.33088
▁Ga	-9.33154
▁cap	-9.33208
ˈ	-9.33209
▁original	-9.33231
▁starting	-9.33408
▁em	-9.33423
▁prices	-9.3344
▁cooked	-9.33447
ans	-9.33474
ute	-9.33479
zo	-9.33481
ify	-9.33555
uc	-9.3367
▁series	-9.33711
▁late	-9.33876
▁More	-9.33933
▁night	-9.34069
lia	-9.34153
▁count	-9.34237
▁Pa	-9.34344
▁2010	-9.34388
▁ro	-9.34427
▁choose	-9.34468
▁continue	-9.34506
▁thick	-9.34519
▁rates	-9.34533
▁‘	-9.34665
▁vegetables	-9.34703
year	-9.34902
▁bottom	-9.3508
▁connect	-9.35137
▁glands	-9.352
▁release	-9.35205
gar	-9.35423
phy	-9.35486
▁$100	-9.35693
▁members	-9.35765
▁rise	-9.358
ular	-9.3582
▁lu	-9.3583
ley	-9.3585
▁install	-9.35873
▁increased	-9.35919
ev	-9.35992
▁difficult	-9.36078
▁factor	-9.36085
▁version	-9.36106
▁town	-9.36137
▁bring	-9.3615
ella	-9.36208
▁fever	-9.36236
air	-9.36238
light	-9.36241
▁IRA	-9.36253
▁taste	-9.36432
▁Report	-9.36442
▁young	-9.36475
▁groups	-9.36535
▁ear	-9.36601
▁patient	-9.36628
▁phone	-9.36629
99	-9.36664
▁Pi	-9.36691
_	-9.3671
▁companies	-9.36759
▁begin	-9.36781
▁micro	-9.36863
▁subject	-9.36874
rt	-9.36899
▁weather	-9.36906
▁com	-9.36953
ov	-9.37008
▁minerals	-9.37122
▁idea	-9.37286
▁dark	-9.37311
▁stop	-9.37335
▁paper	-9.3739
▁drink	-9.37396
▁pounds	-9.37425
ris	-9.37446
▁chain	-9.37469
▁r	-9.37469
▁qu	-9.37486
▁named	-9.37586
▁allows	-9.37617
▁2011	-9.37673
serv	-9.37733
▁device	-9.3786
ick	-9.37894
all	-9.38062
▁article	-9.38103
▁Bi	-9.38126
▁thin	-9.38187
▁fe	-9.3828
▁became	-9.38285
▁solid	-9.38287
▁built	-9.38317
▁cur	-9.38335
▁Su	-9.38491
▁horse	-9.38554
pos	-9.38598
ates	-9.38683
▁pepper	-9.38748
ect	-9.38929
▁record	-9.3902
ey	-9.39041
▁hourly	-9.39062
▁serve	-9.39194
▁portion	-9.39204
mal	-9.3932
▁pair	-9.39341
▁combination	-9.39414
▁represent	-9.39502
▁ta	-9.39515
▁expensive	-9.39531
▁sense	-9.39548
▁photo	-9.39592
▁widely	-9.39605
▁nutrients	-9.3964
ino	-9.39655
▁trees	-9.39662
sp	-9.39875
gg	-9.39923
cus	-9.3997
▁bones	-9.40012
▁developed	-9.40084
▁regular	-9.40099
ries	-9.4012
▁concrete	-9.40236
ug	-9.40269
▁ability	-9.40313
▁necessary	-9.4032
▁balance	-9.4033
du	-9.40444
▁therapy	-9.40526
ric	-9.4054
▁City	-9.40591
▁injury	-9.40676
▁neck	-9.40736
▁Mi	-9.4075
ins	-9.40879
▁bit	-9.4107
▁reason	-9.41078
ound	-9.41151
▁syndrome	-9.41184
ition	-9.41265
▁vaccine	-9.41321
▁website	-9.41355
14	-9.41374
▁management	-9.41378
▁Sea	-9.41395
▁spinal	-9.41411
rd	-9.41426
▁rich	-9.41451
▁High	-9.41636
▁lymph	-9.41706
▁film	-9.41783
▁deal	-9.41822
▁rather	-9.41824
▁online	-9.41848
▁drive	-9.41915
▁Texas	-9.41936
▁seed	-9.42376
▁mid	-9.42381
16	-9.42384
▁stage	-9.42501
▁pork	-9.42578
▁planet	-9.42624
▁El	-9.42745
old	-9.42873
▁pregnancy	-9.42883
▁drugs	-9.42894
▁Name	-9.42972
▁suggest	-9.43039
▁expected	-9.43242
▁(2	-9.4325
▁normally	-9.43255
▁Food	-9.43274
▁dioxide	-9.43375
▁upon	-9.43379
▁root	-9.43401
▁select	-9.43423
▁processes	-9.435
▁reported	-9.4353
11	-9.43572
ctor	-9.43587
▁Mu	-9.43696
par	-9.43702
▁love	-9.4371
▁Gu	-9.43773
▁written	-9.43856
▁medication	-9.43901
▁Because	-9.43961
mat	-9.43996
▁map	-9.4401
▁Since	-9.4404
▁wind	-9.44055
▁mineral	-9.44109
▁pet	-9.44115
▁amino	-9.44157
car	-9.44178
▁$50	-9.44308
▁island	-9.44312
cal	-9.44401
▁character	-9.44548
▁shows	-9.44555
bra	-9.44627
▁double	-9.44681
▁jobs	-9.44745
▁thing	-9.4475
▁colon	-9.44763
▁ja	-9.44831
▁unique	-9.44887
▁Q	-9.44891
▁organism	-9.4491
▁transfer	-9.44923
▁climate	-9.44963
▁para	-9.44967
▁People	-9.45052
▁tall	-9.45065
▁court	-9.45161
].	-9.45166
▁window	-9.4528
▁covered	-9.45294
▁cord	-9.45328
▁ways	-9.45425
gra	-9.45493
▁federal	-9.45513
▁nucleus	-9.45566
▁try	-9.4559
95	-9.45594
ination	-9.45685
▁river	-9.45782
▁address	-9.4581
▁mar	-9.45872
▁video	-9.45872
▁dogs	-9.45898
▁cheese	-9.4594
▁thought	-9.45946
▁modern	-9.46015
worm	-9.46033
▁conduct	-9.4617
▁super	-9.46178
don	-9.4622
▁leg	-9.46225
▁transport	-9.46278
000	-9.46281
▁distance	-9.46351
▁River	-9.46363
ification	-9.46391
ency	-9.46418
90	-9.46452
▁older	-9.46469
▁slightly	-9.46512
▁par	-9.46656
▁mis	-9.46679
▁flat	-9.46737
▁Man	-9.46741
cycl	-9.46828
▁released	-9.46875
▁big	-9.46882
▁Indian	-9.46946
13	-9.47028
▁letter	-9.47032
▁never	-9.47037
▁West	-9.47103
▁Tra	-9.47124
▁sauce	-9.47179
▁loan	-9.47198
▁hospital	-9.47214
▁repair	-9.47237
▁45	-9.47239
▁style	-9.47305
▁na	-9.47382
▁grass	-9.47422
▁bag	-9.47537
lon	-9.47568
ier	-9.47576
▁sold	-9.47706
▁minute	-9.47759
▁refer	-9.47778
▁leave	-9.47824
▁box	-9.47867
▁behavior	-9.47867
▁screen	-9.47867
▁hormones	-9.47898
▁tests	-9.47905
ja	-9.47944
mic	-9.47953
▁primarily	-9.47976
▁him	-9.47985
SA	-9.48034
▁Our	-9.48035
▁exercise	-9.48049
▁Once	-9.48209
▁financial	-9.48213
85	-9.48224
▁entire	-9.48376
▁beans	-9.48393
▁band	-9.48401
▁convert	-9.48488
▁member	-9.48493
▁song	-9.48535
van	-9.48575
▁Asia	-9.48657
dia	-9.48701
ace	-9.48704
▁involved	-9.48753
▁requires	-9.48763
▁mixture	-9.48786
▁1/2	-9.4883
▁mark	-9.4887
▁seven	-9.489
▁slow	-9.48948
▁John	-9.48967
▁0	-9.48969
45	-9.49013
▁During	-9.49125
rin	-9.49131
▁team	-9.49135
▁recommended	-9.49238
▁butter	-9.49263
▁Cl	-9.4929
▁meal	-9.4932
▁steak	-9.49322
▁gl	-9.49345
▁diabetes	-9.49388
also	-9.49414
▁scale	-9.49474
▁private	-9.4948
▁capital	-9.49481
▁mix	-9.49505
ory	-9.49682
ec	-9.49701
Q	-9.49748
▁90	-9.49754
▁pa	-9.49783
▁lowest	-9.49786
▁divided	-9.49822
▁again	-9.49842
▁multiple	-9.4986
▁organic	-9.49907
▁step	-9.49937
▁China	-9.49979
▁supply	-9.50036
▁growing	-9.50096
▁substances	-9.50233
▁bad	-9.50296
▁Bar	-9.50313
18	-9.50321
▁feed	-9.50462
▁Dis	-9.50475
▁electrical	-9.50484
▁pound	-9.50494
▁juice	-9.5059
▁requirements	-9.50617
▁fire	-9.50897
▁sleep	-9.50933
35	-9.50998
▁Ja	-9.51075
nk	-9.51158
led	-9.51159
▁System	-9.51177
▁tube	-9.51252
▁sweet	-9.51289
▁compared	-9.51423
▁Ch	-9.5144
ung	-9.5145
▁Service	-9.51478
▁Health	-9.51479
▁gain	-9.51492
▁potential	-9.5154
nes	-9.51542
▁beef	-9.51553
ste	-9.51605
▁decrease	-9.51667
▁designed	-9.51739
▁President	-9.5178
▁port	-9.51901
ping	-9.51969
▁boil	-9.52051
▁abnormal	-9.52064
▁min	-9.52182
art	-9.522
▁Ti	-9.5229
65	-9.52302
tern	-9.52332
▁getting	-9.52336
200	-9.52376
5,000	-9.52436
▁science	-9.52597
▁du	-9.5264
▁app	-9.52742
▁British	-9.52749
▁option	-9.52761
▁search	-9.52793
▁highly	-9.52801
▁tool	-9.52838
▁70	-9.5286
nom	-9.52876
0%	-9.52896
▁Wa	-9.52968
▁host	-9.53034
▁East	-9.53118
▁text	-9.53204
▁radi	-9.53267
▁motor	-9.53281
▁County	-9.53362
▁Can	-9.53402
▁focus	-9.53432
▁detect	-9.53487
▁Part	-9.53488
▁ancient	-9.53541
▁disorders	-9.53609
▁spend	-9.53632
illa	-9.5379
bin	-9.5381
▁career	-9.53859
▁already	-9.53863
):	-9.53901
▁signal	-9.5395
▁Col	-9.53991
fo	-9.54053
▁Ar	-9.54091
▁bill	-9.54148
az	-9.54207
▁properties	-9.54213
▁question	-9.54329
▁mainly	-9.54345
▁formula	-9.54439
tric	-9.5452
sive	-9.54527
▁smooth	-9.54619
▁machine	-9.54678
▁title	-9.54717
▁kill	-9.54725
▁listed	-9.54791
▁commercial	-9.54814
▁fine	-9.54833
▁refrigerator	-9.54862
term	-9.5508
head	-9.5511
▁compound	-9.55181
▁programs	-9.5526
▁ve	-9.55351
oli	-9.55396
▁y	-9.55433
▁setting	-9.55478
▁correct	-9.55484
▁rocks	-9.55542
▁bio	-9.55553
▁July	-9.55596
▁teeth	-9.55715
▁eating	-9.55779
▁rule	-9.55798
▁waste	-9.55818
▁mild	-9.55839
vis	-9.55854
but	-9.55951
▁amounts	-9.55963
▁eyes	-9.5602
▁buy	-9.56031
▁su	-9.5607
▁final	-9.5608
▁°	-9.56175
▁En	-9.56365
▁exist	-9.56387
▁pot	-9.56388
ments	-9.56447
ock	-9.56466
▁summer	-9.56515
can	-9.56532
▁improve	-9.56556
▁basis	-9.56604
....	-9.56609
▁true	-9.56691
▁depend	-9.56734
gin	-9.56737
▁gives	-9.56891
bl	-9.56981
▁quickly	-9.57011
ious	-9.57063
▁units	-9.57131
ear	-9.57172
▁Labor	-9.57261
▁belong	-9.57302
▁employer	-9.57367
://	-9.57425
▁deposit	-9.57448
▁pu	-9.5745
based	-9.57503
▁mind	-9.57553
▁enzyme	-9.57556
▁came	-9.5776
▁purchase	-9.57787
ake	-9.57798
▁Cre	-9.57942
▁Not	-9.57955
▁quite	-9.57994
▁($	-9.58041
▁estimated	-9.58266
▁plus	-9.58278
▁worth	-9.58309
▁official	-9.58549
▁native	-9.5893
▁greater	-9.58934
graph	-9.58956
xi	-9.58958
▁ph	-9.58996
▁Top	-9.59092
rm	-9.59119
AR	-9.59146
▁strength	-9.59157
▁volume	-9.59157
▁mother	-9.59161
▁included	-9.59175
IN	-9.5918
▁October	-9.59258
rate	-9.59266
▁January	-9.5936
▁carbohydrates	-9.59388
▁flower	-9.59393
▁purpose	-9.59409
▁Fe	-9.5941
ject	-9.59417
▁28	-9.59518
lea	-9.5953
▁chronic	-9.59544
▁valve	-9.59586
▁ocean	-9.59661
▁zone	-9.59723
▁fer	-9.59733
▁cor	-9.59788
▁forest	-9.59809
PA	-9.59826
▁cal	-9.60021
▁corn	-9.60036
▁hydrogen	-9.60088
▁Old	-9.60096
not	-9.60184
len	-9.60203
ets	-9.60209
OR	-9.60375
▁digestive	-9.6039
▁friend	-9.60421
spect	-9.60437
▁arteries	-9.60448
mor	-9.60454
▁pattern	-9.60493
▁Fi	-9.60532
▁bear	-9.60545
ae	-9.60595
19	-9.60753
pan	-9.60753
▁80	-9.6079
▁Great	-9.60799
▁ft	-9.60832
▁Ge	-9.60835
mission	-9.60854
bb	-9.60869
▁avoid	-9.60884
▁fr	-9.60903
▁completely	-9.60914
▁via	-9.6096
amp	-9.61023
▁causing	-9.6109
▁pump	-9.61091
▁produces	-9.61092
▁eight	-9.61126
▁compounds	-9.6117
▁April	-9.61173
▁Cook	-9.61177
▁features	-9.61194
▁won	-9.61197
▁ru	-9.61198
▁Har	-9.61209
▁instead	-9.61256
▁stored	-9.61265
▁print	-9.61322
▁looking	-9.61358
17	-9.61414
rus	-9.61418
ration	-9.61429
▁naturally	-9.61644
▁international	-9.61693
▁initial	-9.6178
▁shown	-9.61789
▁Germany	-9.61792
▁About	-9.61889
▁employee	-9.61923
tho	-9.61988
▁began	-9.62054
▁records	-9.62104
▁seem	-9.62135
br	-9.62178
▁coast	-9.62279
▁cross	-9.62368
▁broad	-9.62385
▁mostly	-9.62399
▁border	-9.62427
zz	-9.62477
▁herb	-9.62489
▁lay	-9.62523
sta	-9.62534
uck	-9.62571
room	-9.62617
▁Hi	-9.62621
▁round	-9.62746
▁limited	-9.62763
ST	-9.62904
▁license	-9.62936
▁says	-9.62958
▁Je	-9.62963
▁nature	-9.63015
top	-9.63036
▁remain	-9.63146
▁provided	-9.63174
AT	-9.6318
ju	-9.63225
▁structures	-9.63237
▁influence	-9.6325
-1	-9.63366
▁Home	-9.6343
▁Mexico	-9.63569
▁board	-9.63574
▁individuals	-9.63616
▁glass	-9.6364
aving	-9.63697
emp	-9.6372
▁Congress	-9.63939
AN	-9.63994
▁cm	-9.64083
▁characterized	-9.64128
▁arthritis	-9.64252
▁Step	-9.64261
▁affects	-9.64281
▁vitamins	-9.64328
▁sodium	-9.64339
▁Tri	-9.64361
▁majority	-9.64369
part	-9.64407
▁http	-9.64424
$1	-9.64438
fu	-9.64516
ari	-9.64554
yn	-9.64734
▁paint	-9.64745
▁bu	-9.64794
▁ob	-9.64851
▁nearly	-9.64855
over	-9.64915
og	-9.64945
▁significant	-9.64956
▁knee	-9.65028
▁England	-9.65135
▁35	-9.65152
ned	-9.65285
▁powder	-9.65286
▁roof	-9.65346
ON	-9.6538
▁crust	-9.65453
▁App	-9.65473
▁His	-9.65475
▁grill	-9.65477
rine	-9.65509
▁wine	-9.65561
▁burn	-9.65589
uff	-9.65595
▁reference	-9.65606
▁Sha	-9.65783
▁bacterial	-9.65801
▁negative	-9.65803
▁further	-9.65858
▁chart	-9.65886
▁pool	-9.65901
▁infected	-9.65903
▁door	-9.65917
▁outer	-9.65921
▁increases	-9.66038
▁electric	-9.66092
▁stem	-9.66145
▁im	-9.66214
▁atoms	-9.66249
press	-9.66306
ai	-9.6633
▁tuition	-9.66381
▁ring	-9.6643
▁Sal	-9.66522
▁atmosphere	-9.66659
▁flight	-9.66674
mber	-9.66675
▁lack	-9.66796
wi	-9.6681
▁respiratory	-9.66835
▁$200	-9.66841
▁baking	-9.6688
cing	-9.66952
▁spot	-9.66981
▁multi	-9.66985
▁direction	-9.67005
▁sales	-9.6706
▁containing	-9.67093
▁Spanish	-9.67099
▁operation	-9.67121
▁$25	-9.67229
oxy	-9.67233
1,	-9.67235
▁$20	-9.67289
▁June	-9.67362
▁send	-9.67407
▁relatively	-9.67414
▁Ni	-9.67486
▁offers	-9.67504
▁weigh	-9.67508
▁viruses	-9.67529
▁ur	-9.67534
pre	-9.67586
▁net	-9.67615
www	-9.67631
64	-9.67795
onic	-9.67814
▁meet	-9.67825
ren	-9.67826
low	-9.67854
▁software	-9.67883
see	-9.67926
izing	-9.67969
▁currency	-9.68029
ker	-9.68139
▁sand	-9.68168
iv	-9.68177
▁winter	-9.68211
▁surname	-9.68278
▁Cha	-9.68302
net	-9.68367
stone	-9.68409
▁22	-9.68409
▁concentration	-9.68453
▁goes	-9.68459
▁dollars	-9.68463
▁describe	-9.68538
▁joints	-9.6858
vers	-9.686
▁nursing	-9.68744
▁community	-9.68756
ave	-9.68779
ane	-9.68807
pen	-9.68833
▁August	-9.68833
▁chest	-9.68853
▁Pu	-9.68886
tis	-9.69152
bit	-9.69217
▁choice	-9.69295
lit	-9.69333
▁France	-9.69464
▁throat	-9.69531
▁monthly	-9.69585
▁extend	-9.69631
▁Wi	-9.69639
▁$15	-9.69646
▁concept	-9.69727
▁Florida	-9.69734
▁contribution	-9.6978
▁disc	-9.69794
▁activities	-9.69961
0°	-9.69988
100	-9.70057
▁crystal	-9.70067
▁nerves	-9.70108
▁regions	-9.70294
▁package	-9.70296
▁Like	-9.70309
▁kidneys	-9.7031
state	-9.70315
▁moving	-9.70348
▁wild	-9.70445
▁self	-9.7052
▁Com	-9.70526
▁positive	-9.70531
▁illness	-9.70595
▁couple	-9.70599
▁employees	-9.70624
▁girl	-9.7063
iff	-9.70704
▁save	-9.7079
▁breast	-9.7081
▁begins	-9.70811
rain	-9.70881
ria	-9.70896
▁Source	-9.70919
▁train	-9.70945
ym	-9.71077
▁cu	-9.71108
▁inner	-9.71158
ome	-9.71402
ode	-9.71499
▁woman	-9.71562
▁Roman	-9.71623
▁mono	-9.71664
oo	-9.7167
▁stress	-9.71677
▁collect	-9.71703
▁Ver	-9.71713
▁sheet	-9.71742
▁billion	-9.71847
▁pri	-9.71854
▁tumor	-9.71869
cot	-9.71923
▁200	-9.71933
▁owner	-9.71939
▁message	-9.72024
▁flowers	-9.72096
▁applied	-9.72163
▁plastic	-9.72167
RE	-9.72228
▁Trans	-9.72229
▁cavity	-9.72232
tle	-9.72235
rn	-9.72249
▁European	-9.72298
▁prior	-9.72489
▁Ke	-9.72498
▁west	-9.72506
76	-9.72678
RA	-9.72688
▁construction	-9.72705
▁firm	-9.72709
▁signs	-9.72733
▁actual	-9.72752
ib	-9.7279
▁variable	-9.72838
▁affected	-9.72901
▁beginning	-9.72932
▁$500	-9.72953
▁enzymes	-9.72994
▁received	-9.73234
▁500	-9.73239
fish	-9.73248
▁east	-9.73314
▁guide	-9.73324
itch	-9.73564
▁therefore	-9.73564
▁famous	-9.73611
▁Comp	-9.73814
▁relationship	-9.73829
▁epi	-9.7384
▁hydro	-9.73894
hen	-9.73931
▁Just	-9.73948
▁assistant	-9.73992
▁shell	-9.74011
ame	-9.74081
ological	-9.74101
▁sample	-9.74107
▁Under	-9.74117
▁Sun	-9.74161
▁particularly	-9.74185
lation	-9.74265
▁ham	-9.74332
▁genes	-9.74372
▁fibers	-9.74382
IS	-9.74409
▁ever	-9.74433
▁picture	-9.74467
tar	-9.74492
▁fit	-9.74494
vol	-9.74531
nal	-9.74656
hy	-9.74804
wood	-9.7481
IC	-9.74892
cur	-9.74894
▁Ben	-9.74934
▁started	-9.7494
▁southern	-9.75033
▁Ru	-9.75095
ware	-9.75106
▁trade	-9.75197
98	-9.75221
▁pick	-9.75251
mar	-9.75285
▁presence	-9.75299
▁rice	-9.75344
▁tooth	-9.75388
▁duct	-9.75484
istic	-9.75627
▁understand	-9.75764
▁artery	-9.75765
nel	-9.75779
▁genus	-9.75825
▁rot	-9.7586
ically	-9.75895
▁recent	-9.75968
▁garden	-9.75968
▁Both	-9.76083
▁manager	-9.76127
iving	-9.76191
▁flag	-9.76207
ogen	-9.76265
ene	-9.76268
▁Medical	-9.76285
cu	-9.76313
33	-9.76319
▁$30	-9.76327
▁explain	-9.76378
AL	-9.7641
▁Gi	-9.76416
▁walls	-9.7646
meter	-9.76525
▁serving	-9.7653
▁fa	-9.76549
▁Symptoms	-9.76766
▁*	-9.76768
▁Pay	-9.76769
▁currently	-9.76788
▁draw	-9.76798
▁goal	-9.76829
66	-9.76922
▁ce	-9.76923
▁nation	-9.76969
cess	-9.76984
▁perfect	-9.76987
cin	-9.77075
matic	-9.77114
▁wear	-9.77152
▁distinct	-9.77163
▁exp	-9.77239
▁survey	-9.77252
pri	-9.77285
▁concern	-9.77302
▁fruits	-9.77333
▁involves	-9.77337
▁branch	-9.77367
,000.	-9.77392
▁theory	-9.77397
▁policy	-9.77448
place	-9.77523
▁(3	-9.77537
72	-9.77556
▁popularity	-9.77563
▁technique	-9.77595
▁Even	-9.77638
▁Fahrenheit	-9.77668
▁dish	-9.77688
▁exchange	-9.77845
▁Find	-9.77848
▁Bra	-9.77948
gon	-9.77953
▁Get	-9.78015
▁roughly	-9.78067
▁rain	-9.78096
amine	-9.78157
▁component	-9.78205
▁northern	-9.78259
lt	-9.78266
▁bachelor	-9.78283
▁Windows	-9.78307
ature	-9.78341
▁absorb	-9.78481
▁breath	-9.78486
-2	-9.7849
▁ju	-9.78524
▁bread	-9.78701
▁overall	-9.78719
▁points	-9.78751
▁ball	-9.78768
ery	-9.78774
▁Cor	-9.78798
▁mal	-9.78856
▁expenses	-9.78858
▁sex	-9.78864
ably	-9.78891
88	-9.78922
iti	-9.78925
▁recommend	-9.79028
ob	-9.7904
▁running	-9.7915
rom	-9.79214
Z	-9.79236
▁trust	-9.79269
ient	-9.7937
▁dental	-9.79411
▁Ki	-9.79418
▁ice	-9.79459
▁finger	-9.79466
▁Du	-9.79534
▁impact	-9.79543
▁display	-9.79556
▁distribution	-9.79573
most	-9.79626
tation	-9.79719
▁Pla	-9.79734
▁copy	-9.79781
lip	-9.79811
▁si	-9.79821
▁pen	-9.79869
ong	-9.79986
▁Va	-9.80137
▁vote	-9.80168
▁tea	-9.80335
▁whose	-9.80342
▁Over	-9.80359
▁described	-9.80372
▁spring	-9.80417
22	-9.80418
▁Italian	-9.80428
▁electricity	-9.80552
ture	-9.80585
▁piece	-9.80592
mate	-9.80653
▁percentage	-9.80695
▁Cal	-9.80703
▁variation	-9.80779
▁notice	-9.80799
▁student	-9.80809
▁reactions	-9.80847
▁ingredients	-9.80847
▁stock	-9.80872
01	-9.80885
▁nose	-9.80959
are	-9.80979
▁foreign	-9.80983
▁driver	-9.81004
▁col	-9.81005
▁installed	-9.81008
▁rec	-9.81008
▁son	-9.81009
▁sit	-9.81039
▁characteristics	-9.81082
▁believe	-9.81164
▁replacement	-9.81182
hol	-9.81297
rid	-9.81299
▁Vitamin	-9.81311
▁23	-9.81404
▁contribute	-9.81463
▁International	-9.81489
▁strand	-9.8154
▁September	-9.81616
pping	-9.81627
▁properly	-9.81688
24	-9.81701
▁sequence	-9.81718
▁teacher	-9.81756
▁languages	-9.81756
▁fund	-9.81798
ade	-9.81821
work	-9.81859
▁technology	-9.81871
cho	-9.81945
▁options	-9.81958
▁equipment	-9.81974
▁instance	-9.82105
vy	-9.82136
bre	-9.82151
▁president	-9.82154
▁Plant	-9.82154
▁House	-9.82155
▁£	-9.82162
▁Type	-9.82219
▁$1,000	-9.82236
63	-9.82274
▁Air	-9.82286
▁Code	-9.82287
arm	-9.82297
▁sell	-9.82309
▁workers	-9.82318
▁hyper	-9.82323
▁performed	-9.82345
▁got	-9.8235
▁Che	-9.82367
▁colors	-9.82411
▁established	-9.82426
▁physician	-9.82435
▁regulate	-9.82435
ES	-9.82444
▁took	-9.82454
▁leaf	-9.82587
▁Da	-9.82601
ham	-9.8266
▁London	-9.82667
cept	-9.82678
▁potatoes	-9.82681
▁scan	-9.82695
▁Am	-9.82731
▁$12	-9.82784
▁Bro	-9.82788
▁$40	-9.82795
▁Ocean	-9.82847
oe	-9.82853
▁Read	-9.82882
▁African	-9.82887
▁parents	-9.82893
▁UK	-9.82912
▁layers	-9.82919
▁bra	-9.82945
▁March	-9.82977
▁Water	-9.83039
▁leading	-9.83062
▁benefit	-9.83091
▁storage	-9.83183
▁raw	-9.8324
▁ratio	-9.8325
ix	-9.83292
▁sw	-9.8333
▁held	-9.83383
▁formation	-9.83395
nce	-9.83474
▁Park	-9.83495
▁recipe	-9.83496
▁CO	-9.83503
aw	-9.83578
emia	-9.83583
▁Central	-9.83624
ica	-9.8366
▁Ste	-9.8369
ata	-9.83691
*	-9.83699
▁behind	-9.8378
mark	-9.83807
fer	-9.83838
▁clinical	-9.83864
▁attached	-9.83865
han	-9.83938
lf	-9.83938
▁nu	-9.83964
▁swelling	-9.84016
ress	-9.84037
97	-9.84053
▁feature	-9.84074
wing	-9.84142
▁Pri	-9.84154
▁stand	-9.84165
▁medications	-9.84209
▁seat	-9.84269
▁Any	-9.84384
▁sha	-9.84406
▁engine	-9.84475
68	-9.84535
▁fungi	-9.84575
▁frequently	-9.84666
cro	-9.84728
▁Washington	-9.84775
▁lb	-9.84838
▁Her	-9.84899
▁tu	-9.84926
▁ship	-9.8495
▁park	-9.85075
▁button	-9.85092
▁mutation	-9.85103
▁gold	-9.85187
▁station	-9.85346
▁Note	-9.85363
▁solar	-9.854
▁rib	-9.85458
▁Abuse	-9.85495
77	-9.85533
rac	-9.85587
▁Ju	-9.85596
▁Another	-9.85621
▁provider	-9.85636
▁dead	-9.8564
▁26	-9.85686
▁Sub	-9.85698
ack	-9.8571
▁Depend	-9.85754
▁numbers	-9.85884
▁passed	-9.85885
such	-9.85893
jo	-9.85963
▁economic	-9.85966
▁web	-9.85979
▁testing	-9.85991
ash	-9.85999
▁technician	-9.86072
▁Lu	-9.8612
▁tender	-9.86158
▁legs	-9.86179
▁sur	-9.86199
▁Bureau	-9.86232
49	-9.8628
▁Red	-9.86333
AC	-9.86363
qua	-9.86391
IT	-9.86403
ender	-9.86416
▁pull	-9.86429
▁bonds	-9.86529
▁farm	-9.8653
▁relative	-9.86707
ulation	-9.8673
▁spine	-9.86809
test	-9.86834
ko	-9.86873
wn	-9.86949
▁girls	-9.87026
38	-9.87097
▁status	-9.87117
▁registered	-9.87223
▁hundred	-9.87279
▁path	-9.87285
▁shoulder	-9.87289
▁frequency	-9.87333
▁pack	-9.87356
▁potassium	-9.87387
▁ensure	-9.87416
med	-9.87432
▁rash	-9.87501
▁auto	-9.87516
▁appearance	-9.8753
▁Office	-9.87549
▁Chi	-9.87611
tom	-9.87678
▁wait	-9.87699
▁Let	-9.8773
back	-9.8777
▁$300	-9.87787
46	-9.879
▁bladder	-9.87901
▁syll	-9.88018
▁tropical	-9.88064
board	-9.88077
lam	-9.88104
▁lines	-9.88154
▁independent	-9.88156
▁10%	-9.8823
ident	-9.88258
▁Now	-9.88288
▁hatch	-9.88291
▁cream	-9.88338
ky	-9.88372
▁press	-9.88379
water	-9.88389
▁Statistics	-9.88391
pha	-9.88418
▁spa	-9.8843
▁master	-9.88463
▁measured	-9.88536
ook	-9.8855
▁65	-9.88622
▁accept	-9.88718
▁review	-9.88732
▁cash	-9.88829
▁steps	-9.88857
▁components	-9.88862
ened	-9.88887
q	-9.88904
long	-9.88926
89	-9.88927
▁desert	-9.88938
▁2009	-9.88943
cor	-9.89039
lie	-9.89063
▁items	-9.89095
▁flour	-9.89101
ference	-9.89121
▁performance	-9.89189
free	-9.892
▁Check	-9.89232
▁Post	-9.89246
▁analysis	-9.89269
▁antibiotic	-9.89274
▁radiation	-9.89311
▁happen	-9.89332
▁Roth	-9.89334
▁el	-9.89374
▁lung	-9.89375
▁Day	-9.89399
▁$0	-9.89438
▁talk	-9.89464
put	-9.89581
▁alone	-9.8959
▁filter	-9.89598
iz	-9.89632
▁fan	-9.89652
range	-9.89662
glyc	-9.89668
▁bowl	-9.8967
▁wedding	-9.89682
▁finish	-9.89683
▁·	-9.89684
ney	-9.89724
▁Pacific	-9.89736
▁constant	-9.89736
▁starts	-9.89812
▁places	-9.8987
▁insert	-9.89882
▁stretch	-9.89902
▁situation	-9.89902
▁bed	-9.90051
▁pla	-9.90068
▁future	-9.90069
▁engineer	-9.9012
▁originally	-9.9014
▁fatty	-9.90163
▁classified	-9.90176
▁God	-9.9018
▁anything	-9.90187
▁fully	-9.90252
IP	-9.90266
▁Common	-9.90312
▁gallon	-9.90373
oke	-9.906
▁stick	-9.90602
▁label	-9.90674
▁50%	-9.90712
▁minor	-9.90712
▁container	-9.90782
▁reflect	-9.90792
▁taxes	-9.90812
▁surrounding	-9.90832
▁media	-9.90911
▁ounce	-9.90929
▁tail	-9.91106
▁parent	-9.9112
▁Italy	-9.91191
32	-9.91237
▁View	-9.91266
▁$150	-9.9128
ban	-9.91282
▁strain	-9.91317
▁neurons	-9.91349
▁Photo	-9.91369
met	-9.91419
▁values	-9.91488
▁thus	-9.91499
▁votes	-9.91535
▁followed	-9.91608
▁becomes	-9.91618
67	-9.91651
▁identify	-9.91718
▁heavy	-9.91803
▁coat	-9.9182
▁column	-9.91832
▁Don	-9.91843
▁event	-9.91931
clu	-9.91945
▁decide	-9.92002
▁College	-9.92057
▁Irish	-9.92059
▁cities	-9.92067
▁note	-9.92085
lay	-9.92096
▁cast	-9.92103
ero	-9.92118
▁Social	-9.92135
flu	-9.92209
▁salmon	-9.92212
▁diameter	-9.92256
44	-9.92283
▁enjoy	-9.92284
▁proper	-9.92287
39	-9.92295
▁contraction	-9.92342
▁Char	-9.92354
▁connective	-9.9236
▁achieve	-9.92369
▁removed	-9.92404
active	-9.92438
▁fight	-9.92497
▁estate	-9.9251
▁Mac	-9.9258
▁Inter	-9.92588
▁target	-9.92599
ography	-9.92614
▁father	-9.92626
uk	-9.92671
▁cho	-9.92689
▁sexual	-9.92717
▁deliver	-9.92762
rough	-9.92768
morph	-9.92781
▁respiration	-9.92798
▁chi	-9.92832
▁excess	-9.92893
bro	-9.92946
▁laws	-9.92951
▁protection	-9.92971
▁tendon	-9.92998
which	-9.93013
ore	-9.93015
▁Learn	-9.93026
▁log	-9.93027
ugh	-9.93052
▁u	-9.93065
▁Sc	-9.93136
56	-9.93137
79	-9.93219
▁rights	-9.93262
▁divide	-9.93272
▁Work	-9.93346
pon	-9.93364
▁replace	-9.93367
▁Blood	-9.93367
▁recorded	-9.93369
▁author	-9.93394
74	-9.93468
name	-9.93485
▁Time	-9.93515
▁semi	-9.9352
cer	-9.93574
▁appears	-9.9358
37	-9.93627
▁Chinese	-9.93654
▁graduate	-9.93655
▁birds	-9.93659
vin	-9.9374
foot	-9.93747
▁walk	-9.93806
▁prop	-9.93867
▁extremely	-9.93919
▁300	-9.93938
▁leader	-9.93945
▁attend	-9.93983
duc	-9.94025
▁December	-9.94058
▁Men	-9.94064
teen	-9.94077
▁ask	-9.94083
oph	-9.94134
▁hit	-9.94149
▁hi	-9.94187
▁roots	-9.9434
ola	-9.94401
▁exam	-9.94526
▁road	-9.9463
▁consist	-9.94689
▁ga	-9.94743
▁extract	-9.94761
ost	-9.94762
▁inch	-9.94835
▁decision	-9.94869
86	-9.94882
▁grade	-9.94902
▁schools	-9.94906
ji	-9.94982
▁School	-9.94986
▁nitrogen	-9.95015
-$2	-9.95062
▁yourself	-9.95085
▁custom	-9.95096
well	-9.9511
59	-9.95175
▁gr	-9.95263
har	-9.95278
▁annually	-9.95357
91	-9.95401
▁Hu	-9.95411
hydr	-9.95449
▁instrument	-9.95482
▁adjust	-9.95483
cular	-9.95486
▁Two	-9.95492
▁roll	-9.95511
▁budget	-9.95573
▁party	-9.95615
▁cough	-9.95621
▁pur	-9.95649
▁Department	-9.95658
tical	-9.95659
▁cla	-9.95702
▁Wal	-9.95743
▁political	-9.95746
▁broken	-9.95746
▁veins	-9.95848
ged	-9.95878
▁cl	-9.961
▁yeast	-9.96105
▁Center	-9.96132
▁feeling	-9.96169
MS	-9.96215
trop	-9.96253
▁Association	-9.96305
▁verb	-9.96329
▁Class	-9.96339
▁germ	-9.96354
cell	-9.96453
CO	-9.96458
▁te	-9.96576
▁freezer	-9.96604
cious	-9.96619
▁mm	-9.96637
▁story	-9.9665
OS	-9.96654
LE	-9.96656
▁Lake	-9.96666
$	-9.96684
cardi	-9.96773
▁seal	-9.96805
▁themselves	-9.96838
▁II	-9.96891
▁ideal	-9.96892
▁resulting	-9.969
▁adapt	-9.9693
ula	-9.9694
▁Sta	-9.96962
▁grown	-9.9702
▁2008	-9.97027
gate	-9.97043
▁Constitution	-9.97046
▁temp	-9.97084
▁William	-9.97135
▁cellular	-9.97153
vert	-9.97231
▁pl	-9.97239
▁details	-9.9726
▁dr	-9.9727
▁King	-9.97274
▁Remove	-9.97285
▁ver	-9.97327
▁approach	-9.97374
▁yard	-9.97385
▁Ce	-9.97391
93	-9.97513
▁obtain	-9.97517
rous	-9.97528
▁32	-9.9759
▁bodies	-9.97614
lysis	-9.97658
▁Bre	-9.97765
▁lose	-9.97783
▁stain	-9.97811
▁tile	-9.97814
▁vent	-9.97842
▁aid	-9.97874
right	-9.97904
▁studies	-9.98002
ulate	-9.98005
▁client	-9.98008
ram	-9.98073
▁trip	-9.98078
▁paying	-9.98092
▁track	-9.98108
▁grains	-9.98165
ume	-9.98172
▁opening	-9.98259
▁chance	-9.98294
▁Ko	-9.98323
lock	-9.98366
▁General	-9.98391
▁Origin	-9.98436
▁Japan	-9.9849
▁phrase	-9.98544
lex	-9.9856
▁placed	-9.98563
type	-9.98568
▁touch	-9.98587
▁combined	-9.98596
▁purposes	-9.98642
▁Make	-9.98678
▁depression	-9.98786
▁White	-9.98797
69	-9.988
wel	-9.98831
▁operate	-9.98909
▁core	-9.98942
vic	-9.98947
▁Low	-9.98988
▁soon	-9.99012
bar	-9.99014
▁Up	-9.99046
CH	-9.99054
logy	-9.99057
▁officer	-9.99082
▁Shi	-9.99095
▁Edit	-9.99142
▁existing	-9.99155
▁knowledge	-9.9918
34	-9.99218
78	-9.99308
▁equivalent	-9.99332
▁battery	-9.99332
▁monitor	-9.99485
▁narrow	-9.99515
▁differ	-9.99613
▁sac	-9.99644
▁measurement	-9.99661
▁yet	-9.99727
oon	-9.99767
▁served	-9.99774
61	-9.99805
▁urinary	-9.9982
hr	-9.99888
▁hip	-9.9989
▁fixed	-9.99924
▁$11	-9.99934
▁Black	-9.99943
▁react	-9.9998
55	-10.0004
shaped	-10.0012
eb	-10.0031
ement	-10.0033
▁successful	-10.0041
▁sentence	-10.0042
▁Mountain	-10.0043
NS	-10.0057
▁writing	-10.0059
▁Kingdom	-10.0059
▁Normal	-10.0065
▁wave	-10.0069
▁boys	-10.0078
▁define	-10.0079
▁treated	-10.0084
62	-10.0088
36	-10.009
21	-10.0091
▁Security	-10.0093
▁security	-10.0093
▁motion	-10.0094
rant	-10.0096
▁rank	-10.0097
▁wh	-10.01
▁Form	-10.0107
=	-10.0108
▁Before	-10.0108
▁fill	-10.0113
▁nucleotide	-10.0114
▁Ser	-10.0116
▁agreement	-10.0117
BC	-10.0118
tension	-10.0122
▁external	-10.0127
LA	-10.0128
CA	-10.0129
▁pancreas	-10.013
ese	-10.014
lum	-10.0141
300	-10.0143
▁hypo	-10.0145
rich	-10.0147
US	-10.0148
RO	-10.015
▁75	-10.0154
▁viral	-10.0155
bul	-10.0156
5°	-10.0159
▁evidence	-10.0161
28	-10.0164
ball	-10.0165
▁Share	-10.0166
▁pregnant	-10.0167
47	-10.0178
48	-10.0182
▁charged	-10.0185
▁reasons	-10.0196
▁charges	-10.0198
▁specifically	-10.0201
get	-10.0207
fri	-10.0208
dent	-10.0219
ET	-10.0222
▁acre	-10.0222
▁wet	-10.0225
cha	-10.023
ED	-10.023
▁lab	-10.0231
▁doing	-10.0231
▁exposure	-10.0233
▁panel	-10.0234
▁Law	-10.0241
▁passport	-10.0244
cip	-10.0255
ttle	-10.0256
▁division	-10.026
▁Pat	-10.0262
▁cent	-10.0266
ised	-10.027
▁turkey	-10.0274
AS	-10.0274
▁household	-10.0277
▁alter	-10.0279
▁(19	-10.0286
▁remains	-10.0291
▁intake	-10.0291
▁applications	-10.0292
▁starch	-10.0294
▁edge	-10.0294
off	-10.0294
▁former	-10.0295
▁pronounced	-10.0299
▁Care	-10.0302
lor	-10.031
▁kept	-10.0312
▁November	-10.0321
73	-10.033
▁increasing	-10.033
▁rent	-10.0334
▁pink	-10.0335
▁Western	-10.034
▁sore	-10.0341
87	-10.0343
▁da	-10.0352
▁continent	-10.0357
▁garlic	-10.0359
▁email	-10.0359
84	-10.0361
▁ligament	-10.0362
▁insulin	-10.0362
▁domestic	-10.0369
▁meters	-10.0369
atory	-10.0372
▁alternative	-10.0378
92	-10.0381
▁wire	-10.0386
▁biological	-10.0387
▁pure	-10.0388
▁contractor	-10.0397
▁mile	-10.04
.50	-10.0401
▁Anti	-10.0402
▁covers	-10.041
gue	-10.0415
ala	-10.0419
▁mental	-10.0422
▁measures	-10.0425
▁consumer	-10.0425
▁2000	-10.043
▁user	-10.0441
▁1000	-10.0441
▁beautiful	-10.0445
▁contrast	-10.0445
▁150	-10.045
mus	-10.0456
▁wa	-10.0458
cl	-10.0467
▁load	-10.0469
▁stream	-10.0469
more	-10.047
mil	-10.0471
▁phase	-10.0474
▁fabric	-10.048
▁kitchen	-10.0484
bol	-10.0485
▁diarrhea	-10.0493
▁connected	-10.0497
▁rules	-10.0498
▁determined	-10.0504
▁collection	-10.0505
▁stores	-10.0505
▁pieces	-10.0516
▁citizen	-10.0519
-20	-10.052
▁hepatitis	-10.0522
▁bathroom	-10.0523
29	-10.0527
bil	-10.0529
▁Cell	-10.053
read	-10.0533
▁mail	-10.0533
▁boy	-10.0535
▁Green	-10.0535
▁$60	-10.0537
RI	-10.0537
23	-10.0538
lies	-10.0539
83	-10.0542
ense	-10.0545
▁tear	-10.0546
▁trait	-10.0552
▁fats	-10.0553
ius	-10.0557
▁acute	-10.0559
▁scientific	-10.0561
ville	-10.0569
2%	-10.0569
bri	-10.0574
ik	-10.0576
▁skills	-10.0577
▁Cap	-10.0578
▁USA	-10.0582
82	-10.0582
▁vertebra	-10.0582
▁chemicals	-10.0596
▁abdominal	-10.0597
▁steel	-10.0605
rk	-10.0607
gent	-10.0608
▁safety	-10.0609
▁endo	-10.061
▁discovered	-10.0627
▁driving	-10.063
▁vision	-10.063
ura	-10.0632
▁Human	-10.0636
▁represents	-10.0638
nit	-10.0641
▁waves	-10.0643
▁Pan	-10.0646
glo	-10.0646
▁airport	-10.0648
▁changed	-10.0652
▁introduced	-10.0653
▁appropriate	-10.0656
▁thermometer	-10.0656
▁reduced	-10.0659
-3	-10.066
▁120	-10.066
81	-10.0664
▁runs	-10.0665
▁peak	-10.0668
TI	-10.0675
▁chromosome	-10.0677
▁attach	-10.0679
▁twice	-10.0682
▁je	-10.0682
▁pin	-10.0684
▁western	-10.0686
▁wi	-10.0686
▁Generally	-10.0689
▁February	-10.0692
▁Union	-10.0692
ili	-10.0694
▁ATP	-10.0702
▁radio	-10.0703
▁families	-10.0724
▁Full	-10.0727
lig	-10.0731
▁straight	-10.0732
position	-10.0735
▁mode	-10.0739
▁greatly	-10.0747
aff	-10.0748
▁atom	-10.0751
▁route	-10.0757
1%	-10.0759
ural	-10.0763
▁orange	-10.0768
▁Cu	-10.077
▁tight	-10.0772
▁Then	-10.0781
rum	-10.0784
rian	-10.0785
▁bright	-10.0788
▁investment	-10.0791
▁Hebrew	-10.0797
▁previous	-10.0798
▁permanent	-10.08
▁tiny	-10.0801
▁combine	-10.0811
rie	-10.0827
▁particles	-10.083
▁carries	-10.0831
AD	-10.0837
ire	-10.084
▁phosphate	-10.0841
▁resources	-10.0844
▁Fo	-10.0847
▁failure	-10.0848
PS	-10.085
▁anxiety	-10.0854
▁exception	-10.0869
▁Keep	-10.0876
▁files	-10.0889
▁27	-10.089
▁digestion	-10.09
▁amp	-10.0904
ult	-10.0908
▁toxic	-10.0917
▁metabolism	-10.0917
▁processing	-10.092
In	-10.092
▁Leg	-10.0923
▁Bake	-10.0928
▁Test	-10.093
▁mixed	-10.0935
rib	-10.0937
▁Middle	-10.0938
ocytes	-10.0939
▁hands	-10.0939
▁Rh	-10.094
▁islands	-10.094
▁orbit	-10.0945
▁habitat	-10.0947
log	-10.095
26	-10.0951
▁sum	-10.0964
▁artist	-10.0969
▁hotel	-10.0969
ison	-10.0975
▁faster	-10.0978
lands	-10.0978
▁harm	-10.098
▁Celsius	-10.0985
▁variant	-10.0988
▁global	-10.0995
▁ready	-10.0998
▁director	-10.0998
▁headache	-10.1002
▁occupation	-10.1005
▁military	-10.1008
▁reports	-10.101
▁producing	-10.1011
▁entry	-10.1012
ote	-10.1012
ara	-10.1022
▁Internet	-10.1036
verse	-10.1042
umb	-10.1048
▁copper	-10.1049
▁#	-10.105
burg	-10.1051
▁arch	-10.1055
▁connection	-10.1057
hour	-10.1057
▁counter	-10.1063
▁player	-10.1068
▁success	-10.1068
tail	-10.1071
astic	-10.1072
▁request	-10.1074
ford	-10.1074
▁manage	-10.1077
▁item	-10.1078
▁Sometimes	-10.1083
▁nuclear	-10.1087
TA	-10.1087
▁Mal	-10.109
inch	-10.1093
▁quick	-10.1094
mun	-10.1094
phen	-10.1096
▁Hawaii	-10.1104
▁rh	-10.1108
▁Company	-10.1117
▁Airport	-10.1119
▁lining	-10.1119
unt	-10.1124
▁TV	-10.1128
43	-10.1137
▁prefer	-10.1139
▁deficiency	-10.1141
▁rid	-10.1144
▁rep	-10.1154
▁mon	-10.1155
▁profit	-10.1175
▁customer	-10.1176
▁segment	-10.1179
▁char	-10.1187
▁die	-10.1188
▁Val	-10.1188
▁Every	-10.119
▁heating	-10.1196
rist	-10.1201
▁chromosomes	-10.1204
▁Bur	-10.1206
BA	-10.1209
▁Please	-10.121
▁weak	-10.1212
▁moderate	-10.1212
ivity	-10.1214
▁gum	-10.1218
▁cortex	-10.1224
▁olive	-10.1228
▁thousands	-10.123
rry	-10.1231
▁mortgage	-10.1238
▁Their	-10.124
pho	-10.1241
▁varieties	-10.1241
▁suffer	-10.1241
▁match	-10.1242
TH	-10.1244
71	-10.1244
▁cleaning	-10.1245
din	-10.1246
▁melt	-10.125
▁album	-10.1252
▁poor	-10.1254
▁heal	-10.1254
▁cyst	-10.1263
▁Bio	-10.1265
▁den	-10.127
▁unless	-10.1274
chy	-10.1276
▁issue	-10.1277
▁functional	-10.1277
▁Information	-10.1283
▁promote	-10.1284
▁drain	-10.1289
paid	-10.129
▁Virginia	-10.129
▁lost	-10.1291
▁restaurant	-10.1294
54	-10.1295
▁expert	-10.1311
tech	-10.1312
toxin	-10.1313
▁whereas	-10.1314
▁nine	-10.132
ici	-10.1322
▁kinds	-10.1329
▁methods	-10.1329
▁bake	-10.133
▁immediately	-10.1338
▁Spain	-10.1343
▁lac	-10.1348
▁everything	-10.1353
▁associate	-10.1356
▁wash	-10.1356
▁approved	-10.1358
▁gram	-10.1359
▁powerful	-10.1363
▁ranging	-10.1364
▁demand	-10.1364
zi	-10.1365
▁communication	-10.1367
CE	-10.1369
▁Nu	-10.1391
uch	-10.1392
▁update	-10.1392
▁magnesium	-10.1395
▁retail	-10.1397
▁worked	-10.1402
▁digest	-10.1404
ifer	-10.1416
▁plays	-10.1421
▁Web	-10.1423
▁spoken	-10.1423
57	-10.1426
▁Sch	-10.1429
▁Australian	-10.143
virus	-10.1431
▁vegetable	-10.1433
ional	-10.1446
▁category	-10.1452
▁Heat	-10.1457
pot	-10.1465
▁apart	-10.1465
-10	-10.1468
▁cow	-10.1472
▁36	-10.1476
▁eastern	-10.148
▁tongue	-10.148
▁supplement	-10.1481
▁bird	-10.1483
▁Inc	-10.1495
from	-10.1501
▁Japanese	-10.1502
▁driveway	-10.1505
▁James	-10.1505
▁lobe	-10.151
▁Star	-10.1511
▁therapist	-10.1512
▁institution	-10.1526
-$3	-10.1527
▁contagious	-10.153
▁fly	-10.1532
▁renew	-10.1532
▁cytoplasm	-10.1537
heat	-10.154
house	-10.1547
▁onto	-10.1548
▁acts	-10.1553
▁nodes	-10.1554
itive	-10.1572
rse	-10.1574
▁possess	-10.1576
omb	-10.1578
▁rat	-10.158
▁colour	-10.1582
▁Federal	-10.1584
▁retirement	-10.1585
▁exactly	-10.1586
▁Mag	-10.159
▁please	-10.1591
▁Port	-10.1596
▁electrons	-10.1597
▁frozen	-10.1598
27	-10.16
▁founded	-10.1601
some	-10.1602
▁menu	-10.1605
▁differences	-10.1605
▁Select	-10.1606
▁Confidence	-10.1609
▁distinguish	-10.1609
94	-10.1615
▁occurring	-10.1623
58	-10.1623
▁providing	-10.1623
phil	-10.1626
▁breathing	-10.163
▁earnings	-10.1636
▁steam	-10.1638
▁pop	-10.1641
bert	-10.1642
pine	-10.1644
round	-10.1644
▁smoke	-10.1645
▁ni	-10.1646
3%	-10.1649
tiv	-10.1652
▁strip	-10.1652
▁civil	-10.1655
MP	-10.166
▁characteristic	-10.1664
cial	-10.1665
▁har	-10.1668
▁Plan	-10.1671
▁issues	-10.1674
▁watch	-10.1675
▁sq	-10.1685
▁Tru	-10.1692
▁Bay	-10.1693
08	-10.1695
▁snake	-10.1696
col	-10.1699
pid	-10.17
ez	-10.1705
▁Republic	-10.171
▁wrap	-10.1714
▁prescription	-10.1719
▁govern	-10.1722
ani	-10.1724
una	-10.173
▁grain	-10.1731
▁(4	-10.1731
ID	-10.1734
▁nail	-10.174
▁happens	-10.1741
▁sick	-10.1745
ark	-10.1745
▁$75	-10.1747
-6	-10.175
▁executive	-10.1754
vision	-10.176
▁400	-10.1763
▁assist	-10.1764
▁adding	-10.1766
▁win	-10.1768
▁Start	-10.1775
▁comprise	-10.1781
▁plasma	-10.1783
▁rub	-10.1789
▁statement	-10.1789
▁smell	-10.179
dri	-10.1793
▁Para	-10.1795
▁Northern	-10.1798
▁Bank	-10.1801
▁pigment	-10.1803
▁gases	-10.1805
win	-10.1805
▁hum	-10.1808
▁2007	-10.1816
▁crop	-10.1819
▁nutrition	-10.1819
▁coverage	-10.1826
▁foil	-10.1826
▁except	-10.1828
level	-10.1829
▁lies	-10.1832
▁sent	-10.1836
▁bile	-10.1837
▁31	-10.1845
▁events	-10.1847
▁adjective	-10.1856
▁meta	-10.1859
▁describes	-10.1859
▁skeletal	-10.1864
▁scientist	-10.1864
▁accurate	-10.1864
▁mammals	-10.1868
ano	-10.1875
ND	-10.1877
MA	-10.1878
▁symptom	-10.1878
▁becoming	-10.188
vor	-10.1887
▁establish	-10.1887
▁county	-10.1888
▁customers	-10.189
▁published	-10.1895
▁handle	-10.1911
▁hole	-10.1912
related	-10.1914
▁stands	-10.1925
▁clot	-10.1925
▁AD	-10.1928
▁advantage	-10.193
▁raise	-10.1932
▁Cat	-10.1936
bic	-10.1939
▁engineering	-10.1944
▁specialized	-10.1951
▁Sur	-10.1952
▁expression	-10.1953
▁Yes	-10.1958
▁$10,000	-10.1963
leg	-10.1966
▁maintenance	-10.1968
▁memory	-10.1968
II	-10.1974
▁retain	-10.1978
▁invest	-10.1979
▁calculate	-10.1981
▁Pass	-10.1983
▁electronic	-10.1986
▁pH	-10.1986
▁bind	-10.1991
▁apple	-10.1993
▁bleeding	-10.2001
▁Overview	-10.2002
tz	-10.2003
▁exceed	-10.2005
▁Free	-10.2005
▁believed	-10.2009
▁bottle	-10.2014
▁partial	-10.2017
▁hemoglobin	-10.2024
▁movie	-10.2028
▁cents	-10.2029
with	-10.2029
05	-10.2029
▁Nurse	-10.2032
▁hire	-10.2035
▁electro	-10.2036
wo	-10.204
▁Rock	-10.2041
-5	-10.2045
8%	-10.2046
4%	-10.2046
▁premium	-10.2046
▁operating	-10.205
▁lipid	-10.2053
ken	-10.2059
▁prepared	-10.2059
▁easier	-10.2061
▁Op	-10.2062
▁cartilage	-10.2073
▁receptors	-10.2076
▁Standard	-10.2076
▁format	-10.2076
▁Art	-10.2079
41	-10.2084
SI	-10.2087
▁Fee	-10.2087
▁transform	-10.2093
▁48	-10.2093
mine	-10.2093
▁schedule	-10.2095
▁database	-10.2099
▁ticket	-10.2101
▁giving	-10.2103
▁surgeon	-10.2107
▁respond	-10.2107
▁29	-10.2108
▁grant	-10.2109
▁babies	-10.211
▁manufacturer	-10.2112
pu	-10.2113
▁Blue	-10.2115
▁extension	-10.2117
flow	-10.2127
▁developing	-10.2133
▁bite	-10.2135
▁reaches	-10.2137
▁texture	-10.2142
▁quarter	-10.2142
fla	-10.2154
▁Therefore	-10.2156
▁painful	-10.216
ich	-10.2168
▁spice	-10.2169
▁loose	-10.2171
▁Today	-10.2172
▁George	-10.2187
atic	-10.2195
▁mold	-10.2199
▁composition	-10.2203
▁span	-10.2203
▁Tu	-10.2204
▁permit	-10.2207
▁Examples	-10.221
▁neuron	-10.2212
proof	-10.2212
▁sale	-10.2225
cap	-10.2227
MI	-10.2227
▁valid	-10.2229
care	-10.2232
▁rose	-10.2235
tive	-10.2235
▁Medicare	-10.2236
▁survive	-10.2236
▁reading	-10.2239
bal	-10.2247
▁CA	-10.2248
app	-10.2249
▁$14	-10.2249
▁write	-10.2249
▁scar	-10.2251
▁agree	-10.2258
▁dominant	-10.2259
▁allowed	-10.2259
&	-10.226
▁kids	-10.226
▁pathogen	-10.2266
▁allele	-10.2267
▁Court	-10.2267
EN	-10.2268
▁generation	-10.2282
▁task	-10.2295
▁PC	-10.23
▁devices	-10.23
▁calculated	-10.2303
▁angle	-10.2309
▁completed	-10.231
etic	-10.2313
▁mechanical	-10.2318
direct	-10.2319
▁jo	-10.2319
▁numerous	-10.2321
▁remember	-10.2321
▁ingredient	-10.2322
▁nest	-10.2325
▁join	-10.2327
▁Mer	-10.2329
▁Take	-10.2344
▁destroy	-10.2344
SE	-10.2345
▁remaining	-10.2357
▁switch	-10.2364
▁shop	-10.2365
▁Tax	-10.2369
53	-10.237
▁Education	-10.2375
▁dairy	-10.2375
▁Civil	-10.2379
▁cloud	-10.2388
pay	-10.2393
▁Open	-10.2396
nate	-10.2398
▁Facebook	-10.2398
▁speak	-10.24
gene	-10.2401
▁calculator	-10.2406
▁closely	-10.2406
▁learning	-10.241
▁lake	-10.2412
▁coffee	-10.2414
▁refund	-10.2418
▁antibodies	-10.2429
▁anterior	-10.2442
▁exact	-10.2446
icular	-10.2452
▁diagnosis	-10.2453
▁opposite	-10.2453
▁removal	-10.2457
HA	-10.2459
6%	-10.2461
▁tab	-10.2462
▁forming	-10.2469
▁compare	-10.247
52	-10.2471
▁neuro	-10.2472
bur	-10.2473
▁gift	-10.248
tel	-10.2483
▁yearly	-10.2483
▁Age	-10.2483
▁visible	-10.2488
▁classes	-10.2491
▁Pal	-10.2493
▁$5,000	-10.2493
96	-10.2499
▁$400	-10.2502
UR	-10.2502
standing	-10.2506
▁oldest	-10.2507
);	-10.2517
▁split	-10.2519
▁restrict	-10.2521
▁secondary	-10.2525
▁cable	-10.253
▁invented	-10.2536
▁Mor	-10.2542
▁players	-10.2543
roll	-10.2546
▁Alaska	-10.2547
tory	-10.2548
aya	-10.2557
▁Research	-10.2559
▁IRS	-10.2567
▁significantly	-10.2568
▁shot	-10.257
▁$35	-10.2573
▁attempt	-10.2579
▁ventricle	-10.2579
▁Price	-10.2586
▁regulation	-10.2587
▁Long	-10.2595
iness	-10.2597
tta	-10.2598
▁moist	-10.2601
▁mag	-10.2602
▁consisting	-10.2604
▁Ab	-10.2614
▁syn	-10.2615
▁else	-10.2616
▁Tre	-10.2617
▁lip	-10.262
own	-10.262
▁purchased	-10.2622
▁geo	-10.2622
▁planning	-10.2623
▁attention	-10.2627
▁implant	-10.2627
▁department	-10.2631
▁$13	-10.2634
▁ions	-10.2635
▁blend	-10.2635
meric	-10.2638
▁society	-10.2647
▁cha	-10.2654
▁crack	-10.2655
▁Zealand	-10.2663
▁synthesis	-10.2663
▁vital	-10.2668
▁frame	-10.2672
▁Business	-10.2683
▁excellent	-10.2699
00,000	-10.2702
▁qualify	-10.2703
▁fossil	-10.2707
▁enable	-10.2707
▁discuss	-10.2707
▁moisture	-10.2708
▁Group	-10.2709
▁Mil	-10.2709
▁polymer	-10.2709
▁kg	-10.2709
,800	-10.2713
▁linked	-10.2716
▁residents	-10.2719
▁lamb	-10.2721
pher	-10.2726
▁push	-10.2726
▁continuous	-10.2727
▁Enter	-10.2728
erial	-10.2734
vel	-10.2735
ME	-10.2735
▁died	-10.2741
▁Number	-10.2752
▁transmitted	-10.2753
▁tip	-10.2753
▁Life	-10.2755
point	-10.2759
▁wheat	-10.276
▁resting	-10.2765
ava	-10.2765
▁dance	-10.2765
▁homeowner	-10.2767
▁questions	-10.2771
▁abdomen	-10.2771
▁biome	-10.2774
soluble	-10.278
▁expand	-10.2784
▁Disease	-10.2787
▁classic	-10.279
▁silver	-10.2791
▁NA	-10.2806
dol	-10.281
▁industrial	-10.2812
▁Set	-10.2812
▁ribs	-10.2816
neu	-10.2816
▁edit	-10.2817
ific	-10.2817
▁$250	-10.2819
▁command	-10.282
ux	-10.2823
▁defect	-10.2828
▁weakness	-10.2831
▁camp	-10.2833
▁Non	-10.2835
▁350	-10.284
▁str	-10.2844
42	-10.2847
▁relax	-10.2852
▁pat	-10.2854
▁went	-10.2854
▁nuts	-10.2859
mail	-10.2865
▁fridge	-10.2869
▁mechanism	-10.2873
▁z	-10.2873
yo	-10.2874
▁delivery	-10.2882
pir	-10.2882
key	-10.2884
▁sal	-10.2886
▁race	-10.2892
7%	-10.2896
▁psychology	-10.2897
31	-10.2898
▁Preheat	-10.2899
▁dried	-10.2902
run	-10.2904
▁penalty	-10.2914
07	-10.2916
▁density	-10.2922
▁supplements	-10.2925
▁incubation	-10.2926
▁consult	-10.2926
loid	-10.2927
▁Par	-10.2933
▁slice	-10.2935
ulf	-10.2935
▁output	-10.2937
▁Hol	-10.2948
▁ulcer	-10.2951
▁mat	-10.2966
▁Canadian	-10.2967
▁trigger	-10.2968
▁algae	-10.2975
aries	-10.298
▁controlled	-10.2981
,600	-10.2982
dL	-10.2983
▁depth	-10.2984
▁wound	-10.2986
▁creating	-10.2996
▁comparison	-10.3004
cture	-10.3006
▁Using	-10.3008
▁electron	-10.3009
▁resistance	-10.3009
cil	-10.3014
rick	-10.3016
▁pulmonary	-10.3017
▁description	-10.3017
▁respect	-10.3017
▁earlier	-10.3021
▁lemon	-10.3027
▁played	-10.3035
▁forward	-10.3038
▁tank	-10.3041
vent	-10.3045
MO	-10.3059
▁bus	-10.3061
▁discover	-10.3065
▁Southern	-10.3067
dom	-10.3073
▁desired	-10.3082
▁rabbit	-10.3083
▁Program	-10.3084
▁critical	-10.3092
▁spray	-10.3096
TO	-10.3097
▁capacity	-10.31
▁Min	-10.3105
▁allergic	-10.3108
▁antigen	-10.312
▁identified	-10.3121
▁users	-10.3123
clude	-10.313
▁spec	-10.3131
▁involve	-10.3134
▁visual	-10.3138
▁Thus	-10.3138
▁biggest	-10.3142
▁circuit	-10.3146
▁fun	-10.3151
weight	-10.3155
▁collected	-10.3155
▁historical	-10.3156
▁Follow	-10.3158
▁hy	-10.316
▁Poly	-10.3161
▁recently	-10.3163
door	-10.3166
▁ste	-10.3173
▁History	-10.3176
fusion	-10.3182
▁dense	-10.3185
▁employment	-10.3185
▁spent	-10.3193
02	-10.3199
▁sensory	-10.3203
▁replaced	-10.3206
▁instructions	-10.3209
hop	-10.3211
04	-10.3215
▁employed	-10.3216
called	-10.3217
▁List	-10.3224
▁carrier	-10.3226
▁principle	-10.323
▁injection	-10.323
▁soluble	-10.3233
▁gross	-10.3235
scribe	-10.3235
▁offered	-10.3237
zy	-10.3244
▁beta	-10.3246
▁structural	-10.3255
▁consume	-10.3256
▁BC	-10.3261
wan	-10.3262
▁exposed	-10.3264
▁infant	-10.3264
03	-10.3264
▁pipe	-10.327
ada	-10.3275
ena	-10.3279
▁dietary	-10.328
▁Manager	-10.3289
▁Ireland	-10.329
arian	-10.3298
▁Stra	-10.33
▁linear	-10.3301
▁eventually	-10.3302
cover	-10.3304
▁Muscle	-10.3307
▁nothing	-10.3309
▁width	-10.3311
▁secret	-10.3315
▁Gene	-10.3316
▁Baby	-10.3317
▁extreme	-10.3318
book	-10.333
▁mitochondria	-10.3332
gle	-10.3333
▁Ed	-10.3341
▁Total	-10.3346
▁rod	-10.3347
▁cloth	-10.3347
▁compensation	-10.3349
▁moon	-10.3351
▁nor	-10.337
ette	-10.3373
duction	-10.3374
▁certification	-10.3375
▁recognized	-10.3376
▁Well	-10.3377
piration	-10.3379
▁NOT	-10.3383
▁Mc	-10.3385
▁wish	-10.3387
▁certified	-10.3388
lly	-10.3393
take	-10.3393
▁supplies	-10.3396
▁branches	-10.34
▁optic	-10.34
51	-10.3405
▁insects	-10.3405
▁dangerous	-10.3406
▁context	-10.3409
▁coal	-10.3412
▁prepare	-10.3414
▁Google	-10.3414
▁Georgia	-10.3414
▁dependent	-10.3418
▁led	-10.3422
▁Sam	-10.3423
▁Ur	-10.3428
oster	-10.3428
▁boost	-10.3431
▁autoimmune	-10.3435
AP	-10.3436
▁chief	-10.3441
▁BLS	-10.3453
▁liter	-10.3457
▁staff	-10.3473
▁damaged	-10.3477
ifier	-10.3478
▁quote	-10.348
%)	-10.3481
▁Exp	-10.349
▁dress	-10.3496
▁Out	-10.3496
TM	-10.3497
▁Carolina	-10.35
▁environmental	-10.3505
▁lived	-10.3505
▁consumption	-10.3506
▁signed	-10.3508
▁zip	-10.3511
BS	-10.3512
Re	-10.3517
▁$80	-10.3518
▁debt	-10.3518
▁foundation	-10.3527
▁bacterium	-10.3535
▁wheel	-10.3535
▁voice	-10.3535
▁plain	-10.3547
▁Page	-10.3552
▁Britain	-10.3552
▁Those	-10.3554
▁pituitary	-10.3557
▁trying	-10.3559
lap	-10.3561
▁vomiting	-10.3561
▁bulb	-10.3566
▁Whi	-10.3567
corp	-10.3571
▁Cho	-10.3573
-12	-10.3574
▁eligible	-10.3574
▁bowel	-10.3577
▁assume	-10.3577
▁humidity	-10.3579
▁honey	-10.358
▁usage	-10.3582
script	-10.3583
▁Bill	-10.3589
▁channel	-10.3592
▁drama	-10.3592
▁drinking	-10.3596
▁Credit	-10.3596
,400	-10.3597
▁Gar	-10.3599
▁deck	-10.3603
▁originated	-10.3603
▁thigh	-10.3604
▁Usually	-10.3605
▁manufacturing	-10.3605
▁decade	-10.3605
DA	-10.3609
▁lift	-10.3615
9%	-10.3621
▁biology	-10.3622
▁(5	-10.3629
▁stra	-10.3629
▁university	-10.3631
▁brought	-10.3631
▁seek	-10.3634
▁muscular	-10.364
tone	-10.364
▁spin	-10.3641
▁Only	-10.3646
OT	-10.3649
org	-10.3652
rust	-10.3654
▁transmission	-10.3656
▁Russia	-10.3657
▁Ob	-10.3658
▁mobile	-10.3667
logist	-10.3667
▁Typically	-10.3669
▁stimulate	-10.3671
▁morning	-10.3676
▁Pain	-10.3677
bed	-10.3683
▁situated	-10.3684
▁oxide	-10.3687
▁Pen	-10.3692
▁fail	-10.3694
print	-10.3702
ago	-10.371
▁reached	-10.3713
▁receptor	-10.3718
▁progress	-10.3718
▁Microsoft	-10.3724
▁(#	-10.3725
▁row	-10.3728
ough	-10.3729
▁sudden	-10.3733
▁licensed	-10.3737
▁cultural	-10.3741
09	-10.3741
▁tips	-10.3743
about	-10.3753
▁pretty	-10.3756
▁correspond	-10.376
▁Prince	-10.3761
cut	-10.3765
▁fracture	-10.3769
▁domain	-10.3774
▁Auto	-10.3775
▁aluminum	-10.3778
ING	-10.3789
▁fur	-10.379
▁adrenal	-10.3791
▁effort	-10.3791
▁deduction	-10.3804
mul	-10.3805
▁tablespoon	-10.3805
▁bridge	-10.3805
▁patent	-10.3809
▁tur	-10.3813
blo	-10.3813
▁harmful	-10.3815
▁carried	-10.3818
▁pill	-10.382
▁commission	-10.3829
▁percentile	-10.3829
▁marketing	-10.3833
▁academic	-10.3841
bel	-10.3843
▁$2,000	-10.3847
ties	-10.3848
▁issued	-10.3851
▁technical	-10.3854
▁Amendment	-10.3859
even	-10.386
▁kilometers	-10.3863
▁Introduction	-10.3872
▁understanding	-10.3874
mol	-10.3876
▁principal	-10.3877
▁laboratory	-10.3878
▁carbohydrate	-10.3879
▁unusual	-10.388
▁Good	-10.3885
▁bath	-10.3885
▁parasite	-10.3886
fit	-10.3903
▁beyond	-10.3913
▁uterus	-10.3913
▁hunt	-10.3915
duct	-10.3922
▁favorite	-10.3924
troph	-10.3925
▁relieve	-10.3928
▁facility	-10.3931
▁destination	-10.3931
rig	-10.3934
▁Unlike	-10.3935
▁accounting	-10.3939
▁CD	-10.394
▁interpret	-10.394
cra	-10.3941
▁pneumonia	-10.3945
▁Install	-10.3945
2,000	-10.3947
06	-10.3948
▁marine	-10.3951
▁pulse	-10.3958
▁Salaries	-10.3964
life	-10.3968
▁Hydro	-10.397
▁curve	-10.3971
▁coming	-10.3973
▁withdrawal	-10.3987
▁processed	-10.3988
arch	-10.399
cephal	-10.3993
▁certificate	-10.3995
▁Egypt	-10.3996
▁sort	-10.3998
▁Sign	-10.3999
▁volcano	-10.4004
▁beats	-10.4011
▁dam	-10.4016
▁peri	-10.4016
▁burning	-10.4017
▁2006	-10.4023
shire	-10.4024
▁eaten	-10.4025
▁$45	-10.4025
▁posterior	-10.4031
▁surgical	-10.4036
▁agencies	-10.4036
ule	-10.4039
▁eukaryotic	-10.4045
▁huge	-10.405
known	-10.4053
▁anyone	-10.4055
▁mature	-10.4055
▁snow	-10.4059
ched	-10.4065
▁renal	-10.4068
▁cardiac	-10.4068
▁nationwide	-10.4068
▁infectious	-10.4069
▁transaction	-10.4073
EM	-10.4083
town	-10.4084
▁raised	-10.4086
-8	-10.4087
▁speech	-10.4096
▁cubic	-10.4096
▁confirm	-10.41
▁painting	-10.4102
▁photosynthesis	-10.411
▁RE	-10.4112
▁iPhone	-10.4114
▁efficient	-10.4116
▁sperm	-10.4125
▁Description	-10.4125
chan	-10.4132
▁slowly	-10.4133
▁$18	-10.4133
vul	-10.4136
▁slave	-10.4143
▁stool	-10.4147
▁server	-10.4148
▁pap	-10.4166
▁tub	-10.4167
▁Data	-10.4174
▁absorbed	-10.4174
▁Atlantic	-10.4174
▁Ly	-10.4175
4,000	-10.4176
▁detailed	-10.4176
▁Rate	-10.4181
▁nausea	-10.4184
mu	-10.4187
▁regard	-10.4189
▁Em	-10.4194
▁odor	-10.4199
fra	-10.4202
wall	-10.4202
▁Board	-10.4205
▁tire	-10.4206
▁breakdown	-10.4208
▁grape	-10.4212
ida	-10.4214
▁fairly	-10.4215
▁covering	-10.4215
▁%	-10.422
▁obtained	-10.422
▁trace	-10.422
▁relation	-10.4223
ati	-10.4224
▁(1)	-10.4228
RNA	-10.4228
stitu	-10.423
▁postings	-10.4231
▁airline	-10.4233
▁stroke	-10.4236
▁stable	-10.4237
escent	-10.4244
▁converted	-10.4247
including	-10.425
▁250	-10.4254
▁$16	-10.4257
▁respectively	-10.4259
▁Control	-10.426
▁Turn	-10.4262
▁Card	-10.4266
▁passes	-10.4267
▁garage	-10.4268
▁Project	-10.4281
▁ski	-10.4285
▁menstrual	-10.4287
dro	-10.4289
▁bound	-10.429
cient	-10.4294
▁py	-10.4297
rated	-10.43
▁fungus	-10.4301
▁excessive	-10.4313
gro	-10.4314
abilities	-10.4316
▁vinegar	-10.432
▁psychologist	-10.4329
▁bloodstream	-10.433
▁crime	-10.4334
UN	-10.4341
▁Power	-10.4344
tract	-10.4344
▁circle	-10.4348
▁preparation	-10.4348
▁experienced	-10.4354
VI	-10.4361
▁Account	-10.4367
▁Below	-10.4368
▁Engineer	-10.4376
▁lava	-10.4379
▁metabolic	-10.4381
ami	-10.4392
TR	-10.4394
biotic	-10.4395
▁corporation	-10.4395
▁teaspoon	-10.4395
▁sole	-10.4396
▁filing	-10.4397
▁lateral	-10.4398
AA	-10.4405
▁sports	-10.4409
▁1,000	-10.441
▁session	-10.441
▁Cover	-10.4418
▁closed	-10.443
last	-10.443
▁roasting	-10.444
mount	-10.444
▁abundant	-10.4443
▁margin	-10.4445
▁Super	-10.4446
▁province	-10.4448
▁Ci	-10.4449
east	-10.4451
▁absorption	-10.4453
▁vessel	-10.4453
▁trial	-10.4459
▁exclusive	-10.4462
▁cotton	-10.4462
chin	-10.4464
▁tick	-10.4467
▁district	-10.4477
vil	-10.4482
▁vein	-10.4489
stat	-10.4495
▁37	-10.4499
▁Second	-10.4501
▁generate	-10.4502
▁agency	-10.4506
▁Census	-10.451
▁inhabit	-10.451
▁peel	-10.4514
▁belief	-10.4525
nar	-10.4529
och	-10.4537
▁sweat	-10.4545
▁enhance	-10.4549
▁Dutch	-10.4549
elle	-10.455
▁Where	-10.4554
▁Qua	-10.4554
▁holiday	-10.4558
atch	-10.4564
craft	-10.4572
field	-10.4573
▁remodel	-10.4578
▁eruption	-10.4579
wise	-10.458
▁gray	-10.4584
▁fatigue	-10.4592
▁peripheral	-10.4592
▁classification	-10.4596
▁spelling	-10.4597
▁suit	-10.4598
▁rack	-10.46
▁everyone	-10.4605
▁economy	-10.4612
▁settle	-10.4616
▁bronchi	-10.4617
▁organelles	-10.4617
▁kingdom	-10.4617
▁anemia	-10.4618
▁healing	-10.4626
▁Rating	-10.4627
▁interaction	-10.4627
▁paste	-10.4631
▁(0	-10.4638
▁index	-10.464
▁chloride	-10.4641
▁MRI	-10.4643
box	-10.4643
▁Christian	-10.4643
lytic	-10.4651
▁accepted	-10.4661
▁volcanic	-10.4665
500	-10.4679
▁molecular	-10.468
▁HIV	-10.468
▁dishes	-10.4689
▁Temperature	-10.469
▁Ber	-10.4692
▁polar	-10.4693
▁collagen	-10.4695
bell	-10.4697
▁Wikipedia	-10.47
▁Basic	-10.4704
▁brush	-10.4709
▁stuff	-10.4709
jun	-10.4712
▁IN	-10.4712
▁$70	-10.4713
50,000	-10.4717
▁Disney	-10.4721
▁Vol	-10.4721
▁Guide	-10.4721
▁$19	-10.4723
▁Den	-10.4733
gri	-10.4733
cri	-10.4736
▁Mediterranean	-10.4739
▁superior	-10.4739
opathy	-10.4748
berries	-10.475
▁$17	-10.475
lav	-10.4751
▁facilities	-10.4754
▁rarely	-10.4759
▁tap	-10.4759
▁giant	-10.4759
▁worse	-10.4769
▁impulse	-10.4778
ancy	-10.4778
▁clo	-10.4779
▁embryo	-10.478
▁novel	-10.4781
▁sunlight	-10.4782
flex	-10.479
▁pad	-10.4793
▁unlike	-10.4804
born	-10.4805
▁partner	-10.4807
▁allowing	-10.4809
▁construct	-10.4811
▁Animal	-10.4813
6,000	-10.4819
▁Heart	-10.4832
usually	-10.484
▁Wall	-10.484
media	-10.4852
▁Science	-10.4853
▁worldwide	-10.4855
bru	-10.4855
count	-10.4858
▁wax	-10.4869
▁advanced	-10.4872
avi	-10.4875
▁endocrine	-10.4878
▁intended	-10.4878
▁stir	-10.4878
▁mini	-10.4879
▁Doctor	-10.4882
▁underlying	-10.4884
▁moved	-10.4884
3,000	-10.4889
▁prescribed	-10.4892
▁filled	-10.4894
▁shall	-10.4899
vari	-10.4908
non	-10.4921
▁otherwise	-10.4922
▁capsule	-10.4923
▁married	-10.4923
▁prominent	-10.4933
ographic	-10.4936
▁rental	-10.4936
▁coli	-10.4939
▁ancestor	-10.4948
▁Bacteria	-10.4948
CD	-10.4951
▁hearing	-10.4958
▁thickness	-10.4971
bacter	-10.4973
▁Though	-10.4974
▁trap	-10.4975
▁axon	-10.4976
▁television	-10.4978
▁Ya	-10.4978
▁milli	-10.498
▁tro	-10.4982
ility	-10.4982
cker	-10.4994
saccharide	-10.4997
ddle	-10.5021
▁changing	-10.5023
path	-10.5024
▁guarantee	-10.5028
▁inherited	-10.5028
▁decay	-10.5028
▁personality	-10.5033
-19	-10.5034
▁finding	-10.5035
▁modified	-10.5038
▁ranked	-10.5039
▁Year	-10.5041
▁extensive	-10.5054
▁Micro	-10.5058
uri	-10.5058
▁grand	-10.5058
▁wrong	-10.5059
▁Bel	-10.5062
▁cheaper	-10.5067
▁string	-10.5068
▁association	-10.5069
▁practitioner	-10.5074
▁enroll	-10.5076
▁dip	-10.5077
oderm	-10.5078
▁lawn	-10.5078
▁synthetic	-10.5079
▁lock	-10.5088
▁catch	-10.5088
▁Eastern	-10.5089
▁conversion	-10.5094
▁experiment	-10.5105
▁180	-10.5114
▁Call	-10.5115
▁Mount	-10.5117
▁macro	-10.5118
gress	-10.5121
▁circulation	-10.513
▁statistics	-10.513
▁daughter	-10.513
▁Vo	-10.5132
▁village	-10.514
▁proportion	-10.5156
▁Massachusetts	-10.5161
▁fasci	-10.5165
▁earning	-10.5165
▁meter	-10.5172
▁magnetic	-10.5176
▁cerebral	-10.5176
rite	-10.5179
▁asked	-10.5184
▁Job	-10.5189
▁smallest	-10.519
osphere	-10.5198
▁capable	-10.5199
berry	-10.5201
▁photograph	-10.5204
▁Additional	-10.5207
▁generic	-10.5208
▁topic	-10.5212
▁yield	-10.5212
dar	-10.5216
▁opened	-10.5216
▁arrive	-10.5218
▁rapidly	-10.5218
▁specialist	-10.5219
▁listing	-10.522
▁freeze	-10.5221
berg	-10.5222
▁counsel	-10.5223
▁sinus	-10.5223
product	-10.5227
▁wonder	-10.5227
▁$3,000	-10.5228
mph	-10.5231
▁membership	-10.5231
▁launch	-10.5233
activ	-10.5233
▁20%	-10.5233
fil	-10.5238
▁Land	-10.524
▁poet	-10.5251
▁antioxidant	-10.5254
▁Dan	-10.5263
▁religion	-10.5264
▁episode	-10.5264
▁advance	-10.5266
▁discount	-10.5267
quir	-10.5268
mg	-10.5271
hood	-10.5272
▁leak	-10.5273
▁shingles	-10.5274
▁closer	-10.5276
▁somewhat	-10.528
down	-10.528
▁55	-10.5281
anna	-10.5283
▁Light	-10.5287
poli	-10.5289
▁patch	-10.53
▁(18	-10.5309
integr	-10.5312
oh	-10.5314
emic	-10.5315
▁Lan	-10.5323
▁centre	-10.5325
▁ke	-10.5327
▁background	-10.5329
▁limb	-10.5332
ogram	-10.5336
▁Government	-10.5337
▁categories	-10.5337
▁Count	-10.534
chlor	-10.5353
▁transmit	-10.5362
▁Causes	-10.5363
pet	-10.537
▁interior	-10.5375
pel	-10.5376
▁bal	-10.5379
LL	-10.5384
▁healthcare	-10.5393
▁inflammatory	-10.5397
▁register	-10.54
▁2005	-10.5417
▁spending	-10.5421
▁lawyer	-10.5422
▁era	-10.543
▁secreted	-10.5432
▁Word	-10.5432
IA	-10.5435
▁42	-10.5441
▁speaking	-10.5441
▁microwave	-10.5447
▁ceiling	-10.5447
▁secretion	-10.5448
▁sensation	-10.5458
▁tar	-10.5458
die	-10.5463
▁extent	-10.5463
▁centuries	-10.5468
▁skill	-10.547
▁cheap	-10.5471
▁younger	-10.5474
▁separated	-10.5474
▁administer	-10.549
▁fence	-10.5491
▁rough	-10.5492
▁Amazon	-10.55
▁pathway	-10.5504
▁Roast	-10.5511
▁reserve	-10.5514
▁Institute	-10.5516
▁Ku	-10.5519
▁peace	-10.5526
▁RN	-10.5531
▁hope	-10.5535
▁dosage	-10.5537
body	-10.5537
▁pole	-10.5538
rol	-10.554
▁Area	-10.5544
▁Scottish	-10.5548
▁decor	-10.5553
▁mentioned	-10.5553
PD	-10.5561
▁replication	-10.5566
▁assets	-10.5571
gram	-10.5572
▁manner	-10.5573
▁plural	-10.5576
chemical	-10.5577
▁Energy	-10.5585
▁Next	-10.5586
▁express	-10.5588
▁sink	-10.5589
▁Ten	-10.5589
under	-10.559
▁Mexican	-10.5596
▁possibly	-10.5596
bling	-10.5606
lash	-10.5606
▁constitution	-10.5607
▁club	-10.5609
aught	-10.5614
▁truck	-10.5618
▁trend	-10.5623
NA	-10.5632
▁yogurt	-10.5639
face	-10.5644
▁corner	-10.5645
▁fourth	-10.5648
▁error	-10.565
new	-10.5652
▁Insurance	-10.5655
▁dollar	-10.5658
MR	-10.5661
▁duck	-10.5662
phone	-10.5668
▁Robert	-10.5669
▁leaving	-10.5669
▁Show	-10.5671
EA	-10.5672
▁bat	-10.5677
▁liability	-10.5678
uct	-10.5682
▁mushroom	-10.5682
▁cutting	-10.5686
▁unknown	-10.5687
▁explore	-10.5694
▁largely	-10.5699
shore	-10.57
▁Charles	-10.5702
▁rapid	-10.5705
▁Greece	-10.5709
▁Arab	-10.571
▁homo	-10.5711
▁Mid	-10.5712
-$5	-10.5713
▁prime	-10.5718
▁Gen	-10.5719
neurotransmitter	-10.572
▁buyer	-10.5723
▁100%	-10.5729
▁ribosome	-10.5731
▁oz	-10.5739
,700	-10.5744
▁hear	-10.5745
▁residential	-10.5747
▁Diet	-10.5751
▁longest	-10.5763
8,000	-10.5767
▁prostate	-10.5768
▁dys	-10.5771
inated	-10.5772
onia	-10.5773
▁$1,500	-10.5776
▁boundary	-10.5785
▁reveal	-10.5786
▁tradition	-10.5795
▁saturated	-10.5796
pocket	-10.5798
▁carpet	-10.5801
▁examine	-10.5806
▁usual	-10.5806
▁gel	-10.581
▁poisoning	-10.5814
view	-10.5823
▁attorney	-10.5824
▁Sen	-10.584
▁vast	-10.5847
▁Corn	-10.5848
▁polymerase	-10.5854
source	-10.5859
▁intestinal	-10.5862
▁sharp	-10.5863
▁Small	-10.5863
▁meeting	-10.5865
▁Search	-10.5869
▁extended	-10.5871
▁1.5	-10.5873
IM	-10.5874
▁terminal	-10.5874
▁Del	-10.5876
▁threat	-10.5878
▁familiar	-10.5879
logical	-10.5881
▁potato	-10.5887
▁lens	-10.5888
▁Columbia	-10.589
▁golden	-10.5893
▁harvest	-10.5901
▁injuries	-10.5901
▁recovery	-10.5904
▁capillaries	-10.5906
▁profile	-10.5907
▁cake	-10.5908
phosphate	-10.5917
▁territory	-10.5918
▁chip	-10.5919
▁nasal	-10.5926
▁shade	-10.5927
ctive	-10.5932
▁candidate	-10.5934
made	-10.5936
▁jump	-10.5939
▁Valley	-10.5941
▁tin	-10.5941
▁Carbon	-10.5947
▁Chicago	-10.5951
▁Medicine	-10.5956
where	-10.596
▁overtime	-10.5962
▁goat	-10.5964
high	-10.5966
▁absolute	-10.5967
▁Dec	-10.5971
▁implement	-10.5973
▁Press	-10.5976
▁Making	-10.598
▁Example	-10.5983
▁Temp	-10.5984
▁shift	-10.5984
▁regularly	-10.5985
vit	-10.5986
▁undergraduate	-10.599
▁gluten	-10.599
ival	-10.599
▁David	-10.599
▁Coast	-10.5991
▁lease	-10.5992
▁nutrient	-10.5993
▁spirit	-10.6
▁Turkey	-10.6007
▁feeding	-10.6009
▁digital	-10.6011
▁descend	-10.6012
▁ethnic	-10.6012
▁tiger	-10.6012
PE	-10.6017
▁syrup	-10.6018
▁didn	-10.6019
▁Administration	-10.6023
▁fix	-10.6025
▁£1	-10.6026
tosis	-10.6026
▁voltage	-10.6029
▁submit	-10.6031
▁rainforest	-10.604
▁consistent	-10.6047
vid	-10.6047
▁audit	-10.6051
▁milligrams	-10.6051
▁Fla	-10.6052
OL	-10.6052
▁Mail	-10.6054
▁helpful	-10.6055
▁cereal	-10.6057
▁Angeles	-10.6058
▁spasm	-10.6062
▁shallow	-10.6064
▁tie	-10.6064
▁poll	-10.6067
LI	-10.6067
▁shower	-10.6069
▁revenue	-10.6074
▁Family	-10.6074
▁boat	-10.6074
idal	-10.6075
▁Tur	-10.6077
▁protective	-10.6083
▁vascular	-10.6088
▁tan	-10.6089
▁shrub	-10.6108
▁zinc	-10.6108
▁rainfall	-10.6108
▁psycho	-10.6116
▁concentrate	-10.6119
▁Gro	-10.6124
▁Chan	-10.6127
▁marrow	-10.6127
cellular	-10.6128
▁accident	-10.613
▁plane	-10.6134
lect	-10.6136
▁HR	-10.6138
▁asphalt	-10.6141
▁quantity	-10.6153
▁comprehensive	-10.6158
▁Russian	-10.616
▁king	-10.6162
▁160	-10.6168
▁Hy	-10.6168
gna	-10.6171
ounce	-10.6178
EL	-10.618
▁Treatment	-10.6181
▁Special	-10.6181
▁Early	-10.6181
▁Ty	-10.6185
▁2,000	-10.6185
ku	-10.6186
▁Back	-10.6187
alis	-10.6188
▁literature	-10.6199
▁boiling	-10.62
▁Apple	-10.6209
▁cure	-10.6214
▁gallbladder	-10.6215
▁sustain	-10.6215
plant	-10.6226
▁neutral	-10.6227
bon	-10.6227
▁volcanoes	-10.6227
▁criminal	-10.6232
▁bud	-10.6236
calorie	-10.6236
lateral	-10.6238
▁magma	-10.6238
▁recover	-10.6242
▁chops	-10.625
▁soup	-10.6251
▁producer	-10.6255
▁1/4	-10.6256
▁surround	-10.6264
▁disability	-10.6266
▁reduction	-10.6266
▁precipitation	-10.6267
▁frequent	-10.6268
ffi	-10.6268
▁Senate	-10.6268
▁amendment	-10.6273
blast	-10.6273
▁Epi	-10.6274
▁belt	-10.6279
▁undergo	-10.628
word	-10.6283
now	-10.6283
▁Gold	-10.6284
1,000	-10.6284
▁occasionally	-10.6291
▁lymphatic	-10.6291
Getty	-10.6297
war	-10.6297
▁bull	-10.6301
▁potentially	-10.6305
▁Berlin	-10.6309
▁vapor	-10.6313
▁Electric	-10.6318
▁Hindu	-10.6324
▁Table	-10.6324
▁passage	-10.6332
CR	-10.6333
▁Know	-10.6341
▁whale	-10.6345
▁Arabic	-10.6347
lac	-10.6351
methyl	-10.6352
▁mucus	-10.6368
▁plum	-10.6369
▁pra	-10.6373
▁shorter	-10.6377
▁chamber	-10.6377
▁plug	-10.6378
▁mood	-10.6379
▁soda	-10.6381
▁Assistant	-10.6382
▁download	-10.6385
▁barrier	-10.6388
▁automatically	-10.6389
▁Product	-10.6391
▁marked	-10.6391
▁chemistry	-10.6396
▁hen	-10.6396
▁visa	-10.6402
▁Children	-10.6406
▁identity	-10.6417
▁representative	-10.6422
▁beverage	-10.6423
▁Natural	-10.6429
▁palm	-10.6429
▁skillet	-10.6434
▁selection	-10.6434
▁Term	-10.6435
▁tape	-10.6436
▁Often	-10.6442
▁Mill	-10.6443
▁fold	-10.6449
▁Arch	-10.6452
▁emergency	-10.6452
▁Management	-10.6452
▁predict	-10.6453
▁Figure	-10.6456
▁requirement	-10.6456
▁Sho	-10.6457
▁Hill	-10.6458
than	-10.646
▁secrete	-10.6463
▁diagnose	-10.6463
▁cattle	-10.6465
une	-10.6467
▁moment	-10.6474
▁continental	-10.6474
▁multiply	-10.6475
izer	-10.6477
load	-10.6478
▁Ven	-10.6478
▁secure	-10.6482
hibi	-10.649
fill	-10.6491
▁practical	-10.6493
▁Moon	-10.6493
▁gut	-10.6494
▁Egyptian	-10.6497
▁adopted	-10.6505
▁Colorado	-10.651
▁comment	-10.6516
DI	-10.6516
▁Brazil	-10.6516
▁Treaty	-10.6522
▁elected	-10.6529
▁600	-10.653
▁equation	-10.6534
▁Dictionary	-10.6546
▁heard	-10.6548
▁shaped	-10.6548
▁sensitive	-10.6558
▁purple	-10.656
▁$600	-10.6568
▁outdoor	-10.6568
▁shock	-10.6572
▁arise	-10.6574
▁salad	-10.6575
▁exhibit	-10.6575
▁annum	-10.6577
▁greatest	-10.6578
▁trim	-10.6584
▁basement	-10.6598
▁Hard	-10.6599
▁reproductive	-10.6599
▁profession	-10.6602
▁Oldest	-10.6611
organ	-10.6614
▁Fire	-10.6615
carbon	-10.6617
▁Save	-10.6619
▁fair	-10.6621
▁atomic	-10.6622
▁Arizona	-10.6623
▁chocolate	-10.6623
▁crown	-10.6625
▁Organ	-10.6628
▁Season	-10.6629
▁meant	-10.6637
▁Pennsylvania	-10.6646
▁Three	-10.6659
▁watt	-10.6675
▁emerge	-10.6676
▁evolution	-10.6682
▁vertical	-10.6684
▁alpha	-10.6685
▁granite	-10.6688
▁police	-10.6688
▁Frank	-10.6689
▁Range	-10.6701
oscopy	-10.6702
▁measuring	-10.6706
▁Neuro	-10.6709
▁1980	-10.6713
▁examination	-10.6714
▁strep	-10.6716
▁aorta	-10.6717
Cl	-10.6721
plication	-10.6723
▁Master	-10.673
▁mph	-10.6732
▁icon	-10.6733
▁discharge	-10.6738
▁esophagus	-10.6742
facing	-10.6745
▁poultry	-10.6748
▁routine	-10.6748
▁eliminate	-10.6748
▁emotional	-10.6754
ibility	-10.6755
▁Native	-10.6756
▁transcription	-10.6758
▁saw	-10.6758
elect	-10.6759
▁beauty	-10.676
▁boundaries	-10.6773
▁obvious	-10.6778
▁spectrum	-10.6778
▁coating	-10.678
self	-10.6786
▁relief	-10.679
▁Less	-10.6792
▁sediment	-10.6799
▁ADVERTISEMENT	-10.6803
▁urethra	-10.6803
▁battle	-10.6803
▁Zo	-10.6804
▁qualified	-10.6809
▁basically	-10.6814
▁Instead	-10.6815
▁regardless	-10.6817
▁Map	-10.6828
▁buying	-10.6829
▁Drug	-10.683
▁businesses	-10.6834
▁pine	-10.6838
____	-10.6839
▁Student	-10.6839
▁Large	-10.6844
▁Function	-10.6845
▁Cru	-10.685
▁tablets	-10.6851
▁authority	-10.6854
▁involving	-10.6857
▁sedimentary	-10.6861
-$4	-10.6864
▁surrounded	-10.6864
▁2004	-10.6867
grade	-10.6869
▁senior	-10.6875
▁blow	-10.6885
phag	-10.6886
▁Whether	-10.6888
closure	-10.6889
▁Put	-10.689
▁selected	-10.6899
▁basal	-10.69
▁Paris	-10.6912
▁confused	-10.6912
▁igneous	-10.6912
▁vaccination	-10.6912
list	-10.6913
▁MA	-10.6916
▁uncommon	-10.6918
▁joined	-10.6919
▁expressed	-10.6923
▁gender	-10.6924
▁zero	-10.6925
▁pasta	-10.6929
clo	-10.6932
▁fibre	-10.6932
▁Main	-10.6938
▁sheep	-10.6939
▁Multi	-10.6958
▁reproduction	-10.6961
▁Dog	-10.6974
osa	-10.6974
oxide	-10.6977
▁$90	-10.6983
▁sky	-10.6983
▁ankle	-10.6983
▁Psycho	-10.6992
▁File	-10.6997
▁removing	-10.6998
▁banana	-10.7004
▁microorganism	-10.701
pass	-10.7011
▁previously	-10.7014
▁Current	-10.7016
▁attract	-10.7018
▁receiving	-10.7023
▁perhaps	-10.7023
▁1990	-10.7024
dynamic	-10.7029
▁Scotland	-10.7029
scription	-10.7029
▁transplant	-10.703
▁habit	-10.7033
▁$22	-10.7041
▁hemisphere	-10.7047
▁District	-10.7047
▁Thomas	-10.7048
▁lender	-10.7048
▁plenty	-10.7054
▁Ohio	-10.7054
▁elevation	-10.706
▁Francisco	-10.7066
▁Jersey	-10.7066
▁registration	-10.7066
▁coronary	-10.7066
▁Zip	-10.7067
▁latest	-10.7072
▁Stat	-10.708
7,000	-10.7083
how	-10.7091
▁cuisine	-10.7091
ENT	-10.7092
▁nutritional	-10.7092
EX	-10.7097
▁caffeine	-10.7103
▁brief	-10.7103
▁assess	-10.7113
▁football	-10.7116
▁administration	-10.7116
▁Clinic	-10.7121
▁Rome	-10.7127
▁Summary	-10.7128
▁adj	-10.7129
▁urban	-10.713
▁brick	-10.7131
▁seizure	-10.7141
▁Related	-10.7141
▁shared	-10.7144
that	-10.7152
▁gave	-10.7162
square	-10.7165
▁athlete	-10.7166
▁literally	-10.7168
you	-10.7173
▁religious	-10.7178
▁swollen	-10.7185
trans	-10.719
An	-10.72
▁puppy	-10.7204
▁abuse	-10.7218
▁mantle	-10.7221
▁brother	-10.7223
▁virtual	-10.7235
▁turtle	-10.7236
▁thousand	-10.7237
▁prison	-10.724
▁Public	-10.7241
▁Women	-10.7241
▁satellite	-10.7254
▁wife	-10.7263
▁synthesize	-10.7267
▁Wood	-10.7267
▁infect	-10.7272
gh	-10.7276
▁parties	-10.7277
▁Empire	-10.7279
▁predator	-10.728
▁selling	-10.7287
▁Book	-10.7287
▁finished	-10.7292
gio	-10.7294
filament	-10.7294
green	-10.7295
▁thaw	-10.7295
▁proton	-10.73
▁capture	-10.7301
▁rating	-10.7304
▁quartz	-10.7305
▁1960	-10.7306
▁reducing	-10.7311
hydrate	-10.7312
▁aspects	-10.7314
▁soap	-10.7316
▁dentist	-10.7324
▁interact	-10.7332
▁advice	-10.7337
RP	-10.7338
▁Cur	-10.7339
▁baked	-10.7344
▁substitute	-10.7349
burn	-10.7351
▁Michigan	-10.7356
▁perennial	-10.7356
▁inspection	-10.7356
▁entirely	-10.7356
▁Look	-10.737
▁consumed	-10.7371
▁poem	-10.7371
▁Indonesia	-10.7375
▁reflex	-10.7379
▁slide	-10.738
▁gap	-10.7381
▁resemble	-10.7381
pyr	-10.7383
▁Four	-10.7383
▁bloom	-10.7388
static	-10.7393
▁Play	-10.74
▁evaluate	-10.7401
▁Army	-10.741
aceae	-10.741
nail	-10.7412
▁crab	-10.7413
▁Gla	-10.7414
▁nice	-10.7422
▁applies	-10.7422
▁announced	-10.7426
▁Major	-10.7426
▁Drive	-10.7431
▁manufactured	-10.7431
▁recessive	-10.7433
▁Ham	-10.7434
▁Member	-10.744
▁password	-10.744
saturated	-10.7452
▁1970	-10.7457
▁Asian	-10.7458
▁dream	-10.7459
▁epithelium	-10.7465
▁clothing	-10.7469
▁diagnosed	-10.7472
▁dissolve	-10.7481
iasis	-10.7482
ologic	-10.7485
noun	-10.749
▁climb	-10.7491
▁suitable	-10.7492
▁Fall	-10.7508
▁sector	-10.7509
▁2-3	-10.751
▁wrote	-10.751
▁writer	-10.7515
▁Illinois	-10.7517
igh	-10.7526
▁Chicken	-10.753
▁election	-10.753
▁Iron	-10.7531
front	-10.7535
▁pale	-10.7537
▁Region	-10.7538
law	-10.754
gastrointestinal	-10.7549
▁clinic	-10.7555
▁Market	-10.7556
▁arrangement	-10.7556
▁$24	-10.7557
▁somewhere	-10.7558
▁singer	-10.7559
▁cabinet	-10.7562
▁pour	-10.7567
▁equi	-10.7569
LO	-10.7578
HO	-10.7582
▁ultrasound	-10.7582
▁Express	-10.7586
▁Last	-10.7587
▁folder	-10.7587
▁Rose	-10.7593
▁brake	-10.76
▁Mark	-10.76
▁Brown	-10.7603
▁compress	-10.7604
▁walking	-10.7607
▁shin	-10.7607
▁90%	-10.7611
▁encyclopedia	-10.7628
night	-10.7632
▁bonus	-10.7634
▁equator	-10.7634
▁flexible	-10.7635
▁zoo	-10.7635
▁diverse	-10.7639
▁Custom	-10.7641
▁inhibitor	-10.7643
▁transportation	-10.7653
IL	-10.7655
▁bigger	-10.766
▁default	-10.7661
▁adopt	-10.7662
▁mistake	-10.7662
▁activate	-10.7665
▁specialty	-10.767
polar	-10.767
▁Camp	-10.7671
▁copies	-10.7674
▁hydrocarbon	-10.7675
▁$50,000	-10.7679
▁complications	-10.7681
▁vet	-10.7681
▁Grand	-10.7688
▁engage	-10.7694
▁duration	-10.7703
▁temperate	-10.7707
▁trunk	-10.7707
▁wrist	-10.7709
▁delete	-10.7712
▁Chemical	-10.7714
PI	-10.7718
▁sufficient	-10.772
gov	-10.7722
▁Hepatitis	-10.7727
▁parallel	-10.7727
▁rail	-10.7734
stock	-10.7739
▁Jupiter	-10.774
hand	-10.7746
▁beneath	-10.7747
▁Oregon	-10.7747
idae	-10.7748
▁seller	-10.7749
▁closing	-10.775
▁decline	-10.7754
▁slab	-10.7754
▁apartment	-10.7756
▁filling	-10.7757
quest	-10.776
▁Paul	-10.7762
▁pitch	-10.7762
▁rip	-10.7774
▁needle	-10.7778
▁dust	-10.7779
▁gradually	-10.778
▁League	-10.778
OW	-10.7786
▁opt	-10.7786
phospho	-10.7787
▁Protein	-10.7787
▁Tip	-10.7792
stick	-10.7792
▁necessarily	-10.7793
▁Gaelic	-10.7794
▁alloy	-10.7795
▁Change	-10.7795
▁sharing	-10.7797
▁hill	-10.7799
▁interval	-10.7799
▁retina	-10.7804
borne	-10.7806
▁cluster	-10.7807
▁gestation	-10.7807
ique	-10.7808
ogenic	-10.781
▁clay	-10.7814
ffin	-10.7815
oplasm	-10.782
▁street	-10.7827
▁challenge	-10.7834
▁elbow	-10.7834
▁Victoria	-10.7834
▁passenger	-10.784
▁2003	-10.7846
▁ecosystem	-10.7847
▁dictionary	-10.7847
▁saliva	-10.785
terior	-10.7853
▁Henry	-10.7854
▁Var	-10.7863
▁shoot	-10.7867
▁Record	-10.7867
▁Arm	-10.787
▁expense	-10.7873
▁geographical	-10.7875
▁Desert	-10.7881
▁dye	-10.7883
▁countertop	-10.7889
scale	-10.789
▁lean	-10.789
▁Traditional	-10.7894
▁blister	-10.7894
▁incorporate	-10.7901
▁Qui	-10.7915
▁gall	-10.7916
▁binding	-10.7918
▁Ancient	-10.7922
▁Child	-10.7923
▁thermo	-10.7928
▁professor	-10.7928
▁Israel	-10.7928
▁guest	-10.7933
▁Street	-10.7935
▁settlement	-10.7939
▁Egg	-10.7948
▁reverse	-10.795
ancing	-10.7954
▁beneficial	-10.7955
▁fragment	-10.7955
▁complement	-10.7955
▁Body	-10.7966
titude	-10.7974
▁2.5	-10.7975
▁fraction	-10.7975
▁fundamental	-10.7982
▁Period	-10.7996
▁trail	-10.7996
▁translation	-10.7999
▁closest	-10.8002
▁Installation	-10.8002
▁Boston	-10.8003
▁semester	-10.8009
▁attribute	-10.8009
▁duties	-10.8018
▁synonym	-10.8023
▁shark	-10.8026
▁recognize	-10.8029
▁union	-10.8031
▁Cri	-10.8033
PR	-10.8034
▁calculation	-10.8037
▁ovulation	-10.8037
▁Based	-10.8039
▁Spring	-10.8039
▁Electro	-10.8044
▁delay	-10.8046
▁$100,000	-10.8046
▁abbreviation	-10.8051
▁fermentation	-10.8051
▁Sky	-10.8054
▁Associate	-10.8057
▁contaminated	-10.8057
▁intense	-10.8059
▁interface	-10.8066
▁aircraft	-10.8068
▁fashion	-10.8071
▁Process	-10.8076
▁silicon	-10.8078
▁$30,000	-10.8082
▁church	-10.8085
▁antibody	-10.8086
▁landscape	-10.8092
eastern	-10.8097
▁Key	-10.8102
therapy	-10.8104
cum	-10.8105
▁marriage	-10.8105
▁Java	-10.811
▁officially	-10.8112
▁browser	-10.8112
▁Mini	-10.8117
▁distributed	-10.8119
▁dissolved	-10.8123
▁Lincoln	-10.8126
▁horn	-10.8127
▁insect	-10.8134
western	-10.8135
▁pricing	-10.8135
▁essentially	-10.8141
▁thicken	-10.8141
▁importance	-10.8143
metal	-10.815
▁Certified	-10.8154
▁hybrid	-10.8154
▁entity	-10.8155
▁acquired	-10.8157
▁Sand	-10.8162
▁soak	-10.8164
▁chair	-10.8165
▁Jan	-10.8166
▁industries	-10.8168
bone	-10.8168
▁stamp	-10.8168
▁Fish	-10.8173
▁import	-10.8174
▁creature	-10.8175
▁Mix	-10.8175
▁gather	-10.8179
▁Noun	-10.818
%	-10.8181
▁arc	-10.8185
▁forensic	-10.819
▁Compare	-10.8191
▁Gall	-10.8193
▁Thank	-10.8195
▁rhythm	-10.8202
▁Remember	-10.8202
▁fear	-10.8211
gger	-10.8215
▁earthquake	-10.8223
▁Town	-10.8225
▁conventional	-10.8225
▁Base	-10.8229
▁ingest	-10.823
▁Society	-10.823
▁traffic	-10.8244
▁Several	-10.8244
▁pollen	-10.8246
▁teaching	-10.8246
▁kit	-10.8256
▁earliest	-10.8258
▁kilogram	-10.8258
▁celebrate	-10.8272
▁resource	-10.8274
▁Point	-10.8275
rgic	-10.828
▁resistant	-10.8283
▁Will	-10.8289
▁pharmacist	-10.8293
bound	-10.83
▁inhibit	-10.8301
▁constipation	-10.8307
▁camera	-10.8312
▁inferior	-10.8314
power	-10.8316
▁circulatory	-10.8321
▁phylum	-10.8321
▁Pap	-10.8325
▁Beach	-10.8326
▁Ze	-10.833
▁resin	-10.8331
▁$20,000	-10.8331
▁hypothalamus	-10.8335
▁nucleo	-10.8342
▁improvement	-10.8345
ault	-10.835
▁Print	-10.8355
▁Caribbean	-10.8364
▁allergies	-10.8364
▁policies	-10.8364
▁Nursing	-10.8364
▁iodine	-10.8371
▁lime	-10.8377
▁allowance	-10.8378
▁corporate	-10.8378
person	-10.8381
▁strict	-10.8382
▁referr	-10.8383
▁epithelial	-10.8385
▁housing	-10.8385
American	-10.8386
▁sensor	-10.8387
▁Christ	-10.839
lide	-10.8391
▁Try	-10.8392
▁itching	-10.8397
▁genome	-10.8399
▁Dam	-10.8404
▁$65	-10.8411
▁Michael	-10.8413
▁2002	-10.8415
▁bitter	-10.8416
▁specified	-10.8429
▁Line	-10.8436
▁distinctive	-10.844
▁$28	-10.844
▁Hall	-10.8441
▁Wind	-10.8442
▁artificial	-10.8449
▁tribe	-10.8449
▁disk	-10.8458
▁Democrat	-10.8463
▁enforce	-10.8463
▁swallow	-10.847
▁judge	-10.8471
▁regarding	-10.8474
▁Wales	-10.8476
▁kilometres	-10.8477
▁severity	-10.8477
gran	-10.8481
▁cervical	-10.8485
▁matrix	-10.8492
▁determining	-10.8499
▁Head	-10.85
▁2001	-10.8504
▁observed	-10.8505
▁dimension	-10.8512
vir	-10.8514
▁instant	-10.8515
▁wavelength	-10.852
▁covalent	-10.852
▁temporary	-10.8528
▁tenderloin	-10.8528
▁borrow	-10.8535
▁bulk	-10.8536
English	-10.8537
▁export	-10.8539
▁rheumatoid	-10.8542
▁defend	-10.8542
▁Za	-10.8543
▁lupus	-10.8549
▁bump	-10.8551
IG	-10.8551
▁thumb	-10.8552
▁Professional	-10.8556
▁circumstances	-10.8564
▁pediatric	-10.8564
▁Annual	-10.8564
▁THE	-10.8567
▁toilet	-10.8567
▁provision	-10.857
▁vaginal	-10.8572
je	-10.8574
▁geographic	-10.8577
▁Stone	-10.858
▁generated	-10.8583
▁franchise	-10.8585
▁Similar	-10.8593
▁defense	-10.86
▁Community	-10.8607
▁chill	-10.8609
▁Tuition	-10.8609
▁frost	-10.8609
mbo	-10.8615
▁jaw	-10.8621
▁subsequent	-10.8629
▁triglyceride	-10.8629
onym	-10.863
▁Luc	-10.8638
▁Transfer	-10.864
▁guidelines	-10.8644
▁dough	-10.8644
▁transition	-10.8648
▁diamond	-10.8651
▁thoracic	-10.8665
▁Genetic	-10.8669
▁independence	-10.8672
▁detail	-10.8674
▁Indiana	-10.8675
▁vertebrae	-10.8676
▁Gulf	-10.8677
▁lifetime	-10.8677
▁Location	-10.868
▁$26	-10.8683
▁identical	-10.8687
▁Rub	-10.869
▁occurred	-10.8692
▁thread	-10.8704
▁organized	-10.8705
▁Renaissance	-10.8709
▁pear	-10.8711
▁Vietnam	-10.8716
▁immunity	-10.8731
▁protocol	-10.8731
▁broil	-10.8731
▁reality	-10.8731
▁0.5	-10.8736
▁architect	-10.8737
▁solvent	-10.8746
▁carbonate	-10.875
▁colonies	-10.8751
▁coconut	-10.8753
▁max	-10.8753
play	-10.8758
▁proposed	-10.876
▁architecture	-10.8762
▁Director	-10.8763
▁Motor	-10.8764
▁upload	-10.8766
GI	-10.8769
▁lifestyle	-10.877
wide	-10.8773
▁throw	-10.8774
▁encourage	-10.8775
▁spouse	-10.8775
▁preserve	-10.8775
▁alternate	-10.8776
▁Directions	-10.8777
▁chew	-10.8778
▁merge	-10.8782
▁sausage	-10.8782
▁Network	-10.8782
▁Kar	-10.8785
▁complexity	-10.8785
▁chloroplast	-10.879
▁tubule	-10.879
▁Flu	-10.8804
▁ride	-10.8804
▁allergy	-10.8805
▁nephron	-10.8805
▁tourist	-10.8806
▁favor	-10.881
▁derivative	-10.8812
▁swimming	-10.8812
▁finance	-10.8812
▁wireless	-10.8816
▁pig	-10.8817
▁mosquito	-10.8819
▁Much	-10.882
7.5	-10.882
▁scene	-10.8824
▁Kel	-10.8827
ethanol	-10.8833
▁Commission	-10.8836
▁trauma	-10.8837
▁coastal	-10.8843
▁pension	-10.8855
▁coach	-10.8855
▁horizontal	-10.8856
▁emotion	-10.8864
▁freezing	-10.8864
▁silica	-10.8867
▁Store	-10.8878
▁drum	-10.8879
▁dirt	-10.8881
▁manufacture	-10.8886
▁dragon	-10.8886
▁radioactive	-10.8887
▁pest	-10.8888
▁Financial	-10.8894
▁hang	-10.8894
▁desire	-10.8895
▁cement	-10.8903
▁fillet	-10.891
▁Lyme	-10.8915
RT	-10.8918
▁coil	-10.892
▁trouble	-10.8923
▁veterinarian	-10.8931
▁meningitis	-10.8931
▁loop	-10.8932
▁benchmark	-10.8938
▁Church	-10.8938
▁broker	-10.8938
IR	-10.8939
▁benign	-10.8946
▁Golden	-10.8955
▁$4,000	-10.8955
▁repeated	-10.896
▁mRNA	-10.8973
▁irregular	-10.8976
▁preferred	-10.8979
▁analyze	-10.8983
▁Eye	-10.8985
▁sport	-10.8986
▁Different	-10.8998
▁sulfur	-10.8998
▁occurrence	-10.8999
▁sister	-10.8999
▁Solar	-10.9003
ATION	-10.9005
link	-10.9005
▁discomfort	-10.9006
▁substantial	-10.9006
▁edible	-10.9009
▁tobacco	-10.9014
▁overnight	-10.9015
OH	-10.9016
▁Wild	-10.902
▁attraction	-10.9027
▁Degree	-10.9036
▁draft	-10.9041
▁Help	-10.9046
▁hence	-10.9049
▁eagle	-10.9052
▁pyramid	-10.9059
▁cosmetic	-10.9067
▁Connect	-10.9068
▁diploma	-10.9074
▁tomatoes	-10.908
language	-10.9081
threatening	-10.9083
▁creatinine	-10.9089
▁appetite	-10.9089
▁Plate	-10.9094
▁competitive	-10.9097
▁greenhouse	-10.91
▁valley	-10.9105
▁Adult	-10.9107
▁Dental	-10.9107
▁Bachelor	-10.9112
▁opposed	-10.912
▁predominant	-10.912
ometer	-10.9121
▁arranged	-10.9127
▁License	-10.9127
▁progressive	-10.9135
▁Without	-10.9139
▁Direct	-10.914
▁fungal	-10.915
▁asthma	-10.9154
▁Level	-10.9154
encies	-10.9155
▁nucleic	-10.9157
▁administrative	-10.9158
▁illegal	-10.9158
▁Road	-10.9162
▁Bridge	-10.9166
profit	-10.9168
▁eyelid	-10.9173
▁bought	-10.9181
▁shipping	-10.9183
▁immuno	-10.9187
▁Game	-10.9189
▁thermal	-10.919
bacteria	-10.9191
▁basin	-10.9195
▁buck	-10.92
▁divorce	-10.9204
▁LDL	-10.9204
▁Venus	-10.9206
▁Choose	-10.9207
▁folk	-10.9212
▁freedom	-10.9216
▁latitude	-10.9221
▁Run	-10.9224
▁applicant	-10.9227
▁Council	-10.9235
▁chosen	-10.9235
▁newborn	-10.9242
▁Welcome	-10.9242
▁duty	-10.9245
▁feather	-10.925
▁Louis	-10.9251
▁wealth	-10.9251
▁USD	-10.9251
▁transferred	-10.9256
▁patio	-10.9261
▁calendar	-10.9266
▁nearby	-10.9267
cup	-10.9281
▁reproduce	-10.9281
▁absence	-10.9281
▁Income	-10.9284
▁cardiovascular	-10.9289
▁coordinate	-10.9289
▁deduct	-10.9304
,900	-10.9306
▁accomplish	-10.9312
▁/ˈ	-10.932
▁refrigerate	-10.932
▁replacing	-10.932
▁occasion	-10.9334
▁800	-10.9334
▁$800	-10.9339
▁Popular	-10.9343
▁flesh	-10.9344
▁Review	-10.9351
▁creation	-10.936
fall	-10.9364
▁pilot	-10.9367
▁luck	-10.9371
▁irritation	-10.9375
▁Visit	-10.9377
▁studied	-10.9382
▁constitute	-10.9382
▁Big	-10.9385
stein	-10.9398
▁Lymph	-10.9399
▁$55	-10.9401
▁skeleton	-10.9406
▁fibrous	-10.9411
▁scratch	-10.9414
▁efficiency	-10.9422
▁Due	-10.9425
▁fifth	-10.943
▁$15,000	-10.9433
▁Yellow	-10.9445
▁sprinkle	-10.9445
▁Among	-10.9447
▁fault	-10.9449
▁lifespan	-10.9453
▁clause	-10.9456
▁2016	-10.946
▁Queen	-10.9461
▁Outlook	-10.9461
▁Nations	-10.9465
▁restore	-10.9469
▁altitude	-10.947
specific	-10.9472
▁$21	-10.9472
▁anaerobic	-10.9477
▁commun	-10.9481
▁reticulum	-10.9485
▁$27	-10.9487
ground	-10.9491
▁Language	-10.9501
▁skull	-10.9516
▁Short	-10.9518
▁obstruct	-10.9524
▁FDA	-10.9524
rack	-10.9525
▁relevant	-10.9532
▁junction	-10.9532
-$10	-10.9537
ould	-10.9539
▁kitten	-10.9542
calc	-10.9547
▁Corporation	-10.9548
inflammatory	-10.9552
▁Shakespeare	-10.9556
▁adequate	-10.9556
▁30%	-10.9561
▁comfortable	-10.9562
▁comfort	-10.9567
▁relating	-10.9572
▁oceanic	-10.9575
third	-10.9585
▁1950	-10.9588
▁vinyl	-10.9588
▁Secret	-10.9588
▁Flag	-10.9594
▁opportunity	-10.9604
▁flood	-10.9604
▁manual	-10.9606
stream	-10.9609
▁mill	-10.961
▁evolved	-10.961
▁Singapore	-10.9612
▁communities	-10.9613
▁template	-10.9614
▁anesthesia	-10.962
▁spider	-10.9621
▁Nile	-10.9632
▁laptop	-10.9636
▁bundle	-10.9636
▁Syn	-10.9637
mouth	-10.9641
▁funeral	-10.9644
▁grew	-10.9647
▁Bull	-10.9648
LD	-10.9648
▁repeat	-10.9648
▁strategy	-10.9652
▁precise	-10.9652
▁tomato	-10.9657
▁researchers	-10.966
▁illnesses	-10.9661
▁stiffness	-10.9668
var	-10.9676
▁coldest	-10.9681
▁sitting	-10.9685
▁lump	-10.9695
▁Effect	-10.9701
▁spleen	-10.9701
▁empty	-10.9701
wiki	-10.9707
▁chick	-10.971
chroma	-10.9711
▁childhood	-10.9711
▁Corp	-10.9719
▁cancel	-10.9722
▁intent	-10.9728
section	-10.973
▁Weather	-10.9733
▁digit	-10.9739
▁diagnostic	-10.9741
▁utilize	-10.9741
▁limestone	-10.9742
▁immediate	-10.9743
▁Color	-10.975
class	-10.975
▁Peru	-10.9751
▁gravel	-10.9751
▁Cancer	-10.9752
▁float	-10.9752
▁mammal	-10.9757
zar	-10.9759
▁indicator	-10.9766
▁everyday	-10.9771
▁vagina	-10.9772
▁snack	-10.9774
metry	-10.979
generation	-10.9797
▁petroleum	-10.9806
▁tattoo	-10.9814
▁Survey	-10.9814
▁plaque	-10.9819
▁felt	-10.9826
▁opinion	-10.9831
▁carrots	-10.9831
▁trachea	-10.9831
▁Infection	-10.9839
▁crisp	-10.9839
▁$2,500	-10.9841
▁rotation	-10.9844
▁sulfate	-10.9847
▁regulator	-10.9855
▁Contact	-10.9855
▁Article	-10.9855
▁jack	-10.9856
▁golf	-10.9857
▁cyto	-10.9861
▁aerobic	-10.9863
▁leather	-10.9864
▁trademark	-10.9865
▁twist	-10.9872
▁Calcium	-10.9888
▁serum	-10.9892
▁axis	-10.9902
worth	-10.9904
▁Physical	-10.9905
▁subunit	-10.9913
▁Adam	-10.9913
▁$33	-10.9917
▁deductible	-10.9922
▁lactose	-10.9929
▁Weight	-10.9934
▁velocity	-10.9938
▁spiritual	-10.9947
ocyte	-10.9953
▁fitness	-10.9964
▁Having	-10.997
▁Tree	-10.9972
▁Born	-10.9978
▁simmer	-10.9979
▁invade	-10.9983
dependent	-10.9984
▁breakfast	-10.9987
-$6	-10.999
band	-10.9995
sperm	-10.9995
▁furniture	-10.9996
▁himself	-10.9997
▁freshwater	-10.9998
▁conflict	-11.0004
▁(2000	-11.0009
▁adjacent	-11.0012
▁steroid	-11.0023
▁Such	-11.0028
▁valuable	-11.0029
▁Technician	-11.0046
▁jewelry	-11.0046
▁composite	-11.0046
▁elevated	-11.0054
▁cramps	-11.0054
group	-11.0061
▁fertilizer	-11.0071
▁prohibit	-11.0071
▁circular	-11.0079
▁Lord	-11.008
▁dizziness	-11.0088
▁LLC	-11.0088
▁80%	-11.009
▁gently	-11.0105
▁Allow	-11.0108
▁1999	-11.0109
invasive	-11.0109
▁carefully	-11.0116
▁Located	-11.0121
▁Excel	-11.0123
▁alkaline	-11.0124
▁shut	-11.0125
▁diagram	-11.013
▁peanut	-11.013
▁Why	-11.0133
mari	-11.0133
▁$29	-11.0133
▁Section	-11.0138
DNA	-11.014
▁$39	-11.0141
▁advise	-11.0144
▁lion	-11.0146
▁invention	-11.0147
▁dwarf	-11.0155
ssuming	-11.0158
▁objective	-11.0163
▁euro	-11.0166
▁owe	-11.0167
▁hazard	-11.0172
▁Johnson	-11.0172
rthr	-11.0175
▁Korea	-11.0181
▁recommendation	-11.0181
▁Median	-11.0181
▁$23	-11.0188
2015	-11.0193
▁Near	-11.0197
▁anatomy	-11.0198
▁survival	-11.0198
▁facial	-11.0207
▁NY	-11.021
▁atrium	-11.0216
▁Norman	-11.0223
▁honor	-11.0232
▁Euro	-11.0234
▁massive	-11.0236
▁Celtic	-11.024
▁scheme	-11.0249
▁slope	-11.0249
▁bipolar	-11.0259
▁accompanied	-11.0274
▁telephone	-11.0274
▁inventory	-11.0276
▁hollow	-11.0283
▁ease	-11.0284
▁competition	-11.0291
▁vacuum	-11.0291
LY	-11.0294
▁epidermis	-11.03
▁journey	-11.03
▁accumulate	-11.03
▁interview	-11.0302
▁elephant	-11.0317
▁Jack	-11.0322
▁hernia	-11.0338
▁widespread	-11.0343
▁resort	-11.0343
-$7	-11.0345
▁Netherlands	-11.036
▁pelvic	-11.036
char	-11.0367
▁Personal	-11.0369
▁Between	-11.0377
▁derma	-11.0378
▁smart	-11.0378
quality	-11.0384
▁wool	-11.0386
▁prompt	-11.0387
▁Clean	-11.0387
protein	-11.0389
▁Typical	-11.039
▁teach	-11.0394
▁squash	-11.0395
cooked	-11.0398
▁Iceland	-11.0404
▁genre	-11.0404
▁Travel	-11.0406
▁Hyper	-11.0407
▁smoking	-11.0412
▁nuclei	-11.0413
▁grey	-11.0416
▁Ontario	-11.0421
▁blade	-11.0421
▁lymphocytes	-11.0423
▁extraction	-11.0423
▁Executive	-11.0429
▁Nutrition	-11.0429
▁extinct	-11.0431
▁Through	-11.0432
▁considerably	-11.0433
▁participate	-11.0438
▁bacon	-11.0438
▁marijuana	-11.0447
▁reasonable	-11.0448
charge	-11.0449
▁ultimately	-11.045
▁poison	-11.0462
▁putting	-11.0462
▁$34	-11.0464
cyst	-11.0466
▁nickname	-11.0473
▁yolk	-11.0473
▁gasoline	-11.0473
▁bush	-11.0476
▁shelf	-11.0478
▁hall	-11.0478
trophic	-11.048
▁assistance	-11.0489
▁dorsal	-11.0509
▁Contract	-11.0512
pharynx	-11.0517
▁particle	-11.0518
▁Richard	-11.0526
▁Soviet	-11.0526
▁census	-11.0526
▁Sodium	-11.0526
▁Design	-11.0526
▁rising	-11.0529
▁legend	-11.0533
▁imaging	-11.0534
gloss	-11.0536
▁Arctic	-11.0543
▁cremation	-11.0543
▁suspect	-11.0546
▁Sunday	-11.0555
▁insulation	-11.0577
▁residency	-11.0578
▁utility	-11.0578
▁Application	-11.0578
▁Organization	-11.058
▁barley	-11.0586
▁Maryland	-11.0587
▁false	-11.0596
▁Radio	-11.0604
▁gym	-11.0607
▁league	-11.0614
▁Martin	-11.0615
▁$125	-11.0621
▁iTunes	-11.0623
▁dinner	-11.0623
▁graphic	-11.0623
▁isolated	-11.0624
▁analyst	-11.0631
▁furnace	-11.064
▁pond	-11.0658
▁blind	-11.0658
thyroid	-11.0662
▁mucous	-11.0667
▁Houston	-11.0676
▁psychological	-11.0676
▁Mala	-11.0683
▁intensity	-11.0685
▁storm	-11.0685
▁responsibility	-11.0694
▁silk	-11.0695
wick	-11.0701
▁#1	-11.0702
▁diaphragm	-11.0703
▁Concrete	-11.0712
▁remote	-11.0712
▁monkey	-11.0713
▁pronoun	-11.0713
▁backbone	-11.0716
▁delicious	-11.0721
▁diem	-11.0724
▁Club	-11.0727
▁surprise	-11.073
▁neural	-11.0732
▁Music	-11.0738
▁legislation	-11.0747
▁scholar	-11.0747
▁pelvis	-11.0747
▁random	-11.0747
▁$31	-11.075
▁Despite	-11.0756
▁communicate	-11.0765
▁genetically	-11.077
▁fructose	-11.0774
▁elastic	-11.0776
▁Prime	-11.078
▁NBA	-11.0783
▁platform	-11.0783
▁introduc	-11.0789
▁GPA	-11.0789
▁genital	-11.0792
abbreviated	-11.0801
▁kilowatt	-11.0801
▁pronunciation	-11.0801
▁appliance	-11.0801
▁shelter	-11.0801
▁bonuses	-11.0803
▁magnet	-11.0809
▁rural	-11.0818
▁phosphorus	-11.0819
▁definitely	-11.0821
▁assessment	-11.0822
▁salivary	-11.0825
▁upgrade	-11.0826
ferr	-11.0831
▁happy	-11.0838
,250	-11.0842
This	-11.0847
▁monarch	-11.0848
▁Plus	-11.085
▁speakers	-11.0853
colored	-11.0854
▁metamorphic	-11.0856
▁appeal	-11.0856
▁spinach	-11.0859
▁ridge	-11.0863
▁metric	-11.0864
▁eukaryotes	-11.0874
▁manifest	-11.0874
▁assigned	-11.0874
▁ozone	-11.0878
▁endoplasmic	-11.0883
▁NFL	-11.0883
▁laid	-11.0887
▁Yu	-11.0889
yourself	-11.089
▁apparent	-11.0901
▁cognitive	-11.0901
▁(/ˈ	-11.0911
LAN	-11.0913
greg	-11.0918
▁flash	-11.0919
▁trick	-11.0919
week	-11.0926
▁Continental	-11.0928
▁dedicated	-11.0947
▁sprout	-11.0947
found	-11.095
▁Representative	-11.0965
▁Method	-11.0965
▁worn	-11.0974
▁Hypo	-11.0983
▁follicle	-11.0983
▁Modern	-11.0984
▁Royal	-11.0993
▁republic	-11.1002
▁qualification	-11.1002
▁laser	-11.1008
nnie	-11.101
-$8	-11.1012
▁fuse	-11.1015
close	-11.1016
▁withdraw	-11.1018
▁Return	-11.102
▁gear	-11.1025
▁Consider	-11.103
▁Battle	-11.1034
white	-11.1035
▁oxidation	-11.1039
▁careful	-11.1044
▁guitar	-11.1048
▁twin	-11.1052
▁consequence	-11.1057
▁wolf	-11.1057
▁microscopic	-11.1058
▁complicated	-11.1066
▁mouse	-11.1069
▁campaign	-11.1076
ectomy	-11.1076
▁accredited	-11.1085
▁specialize	-11.1088
▁medulla	-11.1094
agan	-11.1099
▁sap	-11.11
▁Hospital	-11.1104
▁Peninsula	-11.1104
▁ureter	-11.1104
▁$36	-11.1109
▁colorless	-11.1112
▁Muslim	-11.1113
▁Facts	-11.1116
▁entitled	-11.1122
▁readily	-11.1122
▁array	-11.1124
▁civilization	-11.1125
▁centimeter	-11.1132
▁Tweet	-11.1132
▁hardware	-11.1138
▁discussion	-11.1141
opathic	-11.1144
▁proceed	-11.1151
▁USDA	-11.1154
▁afford	-11.1154
credit	-11.1158
▁internet	-11.1165
▁arrival	-11.1169
▁glue	-11.1175
▁disturb	-11.1197
▁identification	-11.1197
▁rubber	-11.12
▁erupt	-11.1203
▁quantities	-11.1206
▁serotonin	-11.1206
Hz	-11.1229
▁medial	-11.123
▁Republican	-11.1234
▁philosophy	-11.1235
▁Monday	-11.1241
▁audio	-11.1262
▁phenomenon	-11.1263
ponent	-11.1269
▁estrogen	-11.1282
▁opportunities	-11.1291
build	-11.1293
▁Salmonella	-11.1301
▁Specific	-11.1301
▁Hotel	-11.1305
▁messenger	-11.131
▁existence	-11.1319
▁Certain	-11.132
▁Down	-11.1321
▁osteoarthritis	-11.1329
▁basketball	-11.133
style	-11.1339
negative	-11.1342
▁Jun	-11.1348
▁expansion	-11.1348
▁compact	-11.1352
▁supposed	-11.1367
▁Endo	-11.1369
▁minimal	-11.137
▁Missouri	-11.1377
▁constituent	-11.1377
cutaneous	-11.1377
▁ownership	-11.1382
after	-11.1387
▁truth	-11.1387
▁designated	-11.1389
▁sprain	-11.1393
sexual	-11.1405
▁chlorophyll	-11.1406
▁universal	-11.1406
▁prefix	-11.1406
▁amazing	-11.1406
▁Cross	-11.1406
▁Author	-11.1413
▁pleura	-11.1414
2.5	-11.1414
▁acne	-11.142
United	-11.1427
▁1996	-11.1433
▁denote	-11.1434
▁germinate	-11.1434
▁residence	-11.1434
▁inflamed	-11.1434
▁mucosa	-11.1444
▁encounter	-11.1463
▁Andrew	-11.1463
▁bay	-11.1465
▁Seattle	-11.1466
▁Sugar	-11.1469
▁Minnesota	-11.1473
▁worry	-11.1473
▁electrolyte	-11.1473
▁Provide	-11.1487
▁additive	-11.1488
▁compression	-11.1489
ogenesis	-11.1494
▁southwest	-11.1495
▁encompass	-11.1502
▁metropolitan	-11.1502
▁47474	-11.1512
▁Antarctic	-11.1512
▁injured	-11.1512
▁quad	-11.1517
▁easiest	-11.1521
▁£2	-11.1522
▁convention	-11.1528
▁physics	-11.1531
▁cellulose	-11.1531
▁gravity	-11.1531
▁ordinary	-11.1531
▁exterior	-11.1534
▁initiate	-11.154
globulin	-11.1541
▁journal	-11.1541
▁fertile	-11.1541
▁varied	-11.1542
▁parathyroid	-11.1551
▁$350	-11.1564
▁ceramic	-11.157
▁Exchange	-11.1571
▁introduction	-11.1572
▁Jackson	-11.1572
▁Thumb	-11.1592
ATE	-11.1593
▁ginger	-11.1594
▁Order	-11.1595
▁Familiarity	-11.1599
▁Registered	-11.1609
▁supplier	-11.1609
▁Kansas	-11.1609
▁convey	-11.1609
▁osteo	-11.161
normal	-11.1613
▁framework	-11.162
▁Zone	-11.1628
▁DEFINITION	-11.1629
▁uniform	-11.1629
▁voluntary	-11.1638
▁Sav	-11.1642
▁tetra	-11.1646
▁protozoa	-11.1648
▁recruit	-11.1658
▁Austria	-11.1658
▁appointment	-11.1668
▁multicellular	-11.1669
▁fiction	-11.1675
▁Alabama	-11.1678
▁evaluation	-11.1678
[	-11.1692
▁demonstrate	-11.1703
▁pollution	-11.1707
▁Dallas	-11.1707
▁faith	-11.1707
especially	-11.1712
▁facilitate	-11.1717
▁lumbar	-11.1717
▁perspective	-11.1717
▁underground	-11.1722
▁Question	-11.1727
▁soybean	-11.1727
▁applicable	-11.1727
▁Norway	-11.1727
▁Training	-11.1737
▁swim	-11.174
patient	-11.1743
▁understood	-11.1747
▁isotope	-11.1747
▁truly	-11.1758
▁stair	-11.176
▁southeast	-11.1765
▁Supreme	-11.1777
▁enclosed	-11.1777
▁polio	-11.1777
▁organelle	-11.1778
▁crude	-11.1787
▁moral	-11.1789
▁rays	-11.1793
▁Individual	-11.1797
▁drainage	-11.1799
▁universities	-11.1806
▁scalp	-11.1807
▁Revolution	-11.1816
▁Link	-11.1819
▁twenty	-11.1826
▁stories	-11.1837
▁Jul	-11.1837
▁Kentucky	-11.1846
ococcus	-11.1883
▁stability	-11.1883
▁puppies	-11.1887
plasia	-11.1887
▁Female	-11.1887
horn	-11.1887
▁spores	-11.189
▁Delta	-11.1893
▁Rob	-11.1897
▁indication	-11.1898
▁danger	-11.1904
▁almond	-11.1907
▁Persian	-11.1908
▁pharmacy	-11.1917
▁depict	-11.1918
▁affordable	-11.1923
▁Mississippi	-11.1927
▁Oxygen	-11.1927
▁escape	-11.1927
▁cranial	-11.1947
▁visitors	-11.1951
▁despite	-11.1957
▁confusion	-11.1957
▁scrap	-11.196
▁circum	-11.1978
▁Connecticut	-11.1978
▁resist	-11.1978
toxic	-11.1983
sometimes	-11.1985
▁Alcohol	-11.1988
▁discipline	-11.1988
▁jurisdiction	-11.1988
▁summary	-11.1988
▁gelatin	-11.1988
▁Cuba	-11.199
▁polish	-11.1998
▁Acid	-11.2004
▁operator	-11.2008
▁hook	-11.2016
glass	-11.2018
▁Smith	-11.2019
▁latter	-11.2019
▁clock	-11.2025
▁Scandinavia	-11.2028
▁pancreatic	-11.2039
▁temporal	-11.2039
▁cornea	-11.2044
▁upwards	-11.2044
▁debate	-11.2045
▁Sprinkle	-11.2049
▁Simply	-11.2049
▁oak	-11.205
▁fried	-11.2051
▁hiring	-11.2054
oodle	-11.2058
psych	-11.2059
▁Glucose	-11.2059
▁keyboard	-11.2063
▁Originally	-11.2065
▁diversity	-11.2069
▁municipal	-11.2069
▁Louisiana	-11.2069
▁combustion	-11.208
▁lizard	-11.208
▁integrated	-11.208
▁Horse	-11.2085
azepam	-11.209
▁optimal	-11.209
▁tectonic	-11.21
change	-11.2101
▁atmospheric	-11.211
▁$1,200	-11.2111
▁inorganic	-11.2111
▁Miami	-11.2112
bird	-11.2113
▁Whole	-11.2121
▁equity	-11.2124
▁knot	-11.2131
EST	-11.2138
▁gemstone	-11.2141
▁french	-11.2162
▁rigid	-11.2162
▁Comments	-11.2166
current	-11.217
#	-11.217
▁Experience	-11.2172
▁stimulus	-11.2172
▁HPV	-11.2172
▁seafood	-11.2183
▁Computer	-11.2183
▁veterinary	-11.2193
▁mythology	-11.2193
▁debris	-11.2194
▁destruction	-11.2203
click	-11.2205
location	-11.2209
▁Occupation	-11.2214
▁subspecies	-11.2214
▁Jewish	-11.2214
▁uncovered	-11.2214
▁reliable	-11.2214
▁fetus	-11.2214
▁legumes	-11.2224
▁literary	-11.2233
▁convenient	-11.2234
▁sandwich	-11.2234
▁Simple	-11.2235
positive	-11.2237
▁flavour	-11.2245
▁hardwood	-11.2252
▁offspring	-11.2255
▁helix	-11.2266
▁partnership	-11.2268
▁Expect	-11.2278
▁Saint	-11.2285
▁preheated	-11.2287
▁implies	-11.229
▁Chief	-11.229
▁attractive	-11.2294
▁Tiger	-11.2294
▁strike	-11.2298
▁microscope	-11.2308
▁analog	-11.231
▁vacation	-11.2318
▁geography	-11.2318
▁Always	-11.2319
▁evergreen	-11.2319
▁realize	-11.2321
▁criteria	-11.2329
▁enlarged	-11.2329
▁vocal	-11.2329
▁fibrosis	-11.233
▁Environment	-11.236
▁explanation	-11.236
cytosis	-11.2366
▁advertising	-11.2371
▁drill	-11.2379
▁Thyroid	-11.2381
▁PDF	-11.2382
▁Castle	-11.2382
▁northwest	-11.2384
▁admission	-11.2395
▁compete	-11.2399
▁approval	-11.2402
▁dividing	-11.2402
▁Chlor	-11.2417
▁disrupt	-11.2424
▁Nevada	-11.2434
▁incubator	-11.2445
▁malaria	-11.2445
▁northeast	-11.2449
▁Watch	-11.2453
▁pseudo	-11.2456
▁blog	-11.2469
▁vegetation	-11.2477
▁Sweden	-11.2477
▁feminine	-11.2477
▁obligation	-11.2477
▁broccoli	-11.2488
▁substrate	-11.2488
▁deciduous	-11.2509
▁duodenum	-11.2509
▁packaging	-11.2509
▁Symbol	-11.2511
ethane	-11.2518
▁Local	-11.2519
▁piano	-11.2523
aldehyde	-11.253
▁observation	-11.253
▁Pakistan	-11.2541
▁chickenpox	-11.2541
▁employ	-11.2549
▁Elizabeth	-11.2552
▁asparagus	-11.2552
▁Welsh	-11.2552
second	-11.2554
ometric	-11.2558
▁citrus	-11.2563
▁sponge	-11.2563
▁Christmas	-11.2563
▁husband	-11.2573
▁purchasing	-11.2573
▁translates	-11.2574
▁Brand	-11.259
▁birthday	-11.2602
▁Leave	-11.2606
▁specimen	-11.2606
▁deviation	-11.2606
▁royal	-11.2606
▁pulp	-11.2609
▁Tropic	-11.2627
▁taxpayer	-11.2627
▁staple	-11.2638
ynaptic	-11.2639
▁jelly	-11.2639
atomic	-11.2645
▁conjunction	-11.2649
▁agricultural	-11.2649
▁Fiber	-11.2651
▁lunch	-11.2657
▁Supplement	-11.266
▁Atlanta	-11.2671
▁Joseph	-11.2671
▁CEO	-11.2671
▁adenine	-11.2672
▁plague	-11.2673
▁publish	-11.2678
▁HDL	-11.2682
▁poisonous	-11.2686
▁Space	-11.269
▁mirror	-11.2692
▁aquatic	-11.2693
▁omega	-11.2703
▁Model	-11.2705
▁bilirubin	-11.2714
▁prokaryotes	-11.2714
▁iPad	-11.2714
▁Video	-11.2715
▁snap	-11.2724
▁exhaust	-11.2725
▁Southeast	-11.2733
▁neighbor	-11.2736
▁magazine	-11.2736
▁prokaryotic	-11.2736
▁promise	-11.2737
▁Internal	-11.2739
▁outcome	-11.274
▁signature	-11.2741
▁rye	-11.2743
▁acronym	-11.2747
▁socio	-11.2758
▁differentiate	-11.2761
space	-11.2765
▁hind	-11.2765
▁Reserve	-11.2765
control	-11.2768
▁intermediate	-11.2769
▁Download	-11.2769
connect	-11.2774
▁whisk	-11.2782
cancerous	-11.2788
▁hereditary	-11.2791
▁Floor	-11.2791
▁wonderful	-11.2794
▁cultivated	-11.2802
▁twelve	-11.2802
▁critic	-11.2802
▁dialect	-11.2802
▁Access	-11.2802
▁dysfunction	-11.2802
▁cabbage	-11.2813
▁departure	-11.2813
▁Edward	-11.283
▁superficial	-11.2835
▁Patients	-11.2846
▁versus	-11.2848
▁underneath	-11.2857
▁spark	-11.2864
▁Governor	-11.2868
▁Global	-11.2868
▁inflation	-11.2869
▁stalk	-11.287
▁expire	-11.2871
▁fibro	-11.2875
▁crucial	-11.288
spore	-11.2884
▁accumulation	-11.2891
▁eczema	-11.2891
▁punish	-11.2891
▁cavities	-11.2902
stimulating	-11.2913
▁cylinder	-11.2913
▁illustrate	-11.2913
▁arrest	-11.2925
vascular	-11.293
▁vector	-11.294
TION	-11.294
▁Turkish	-11.2946
▁heartbeat	-11.2946
▁broth	-11.2947
▁radical	-11.2952
▁Academy	-11.2958
▁Structure	-11.2958
▁shield	-11.2958
▁barrel	-11.2958
▁urea	-11.2959
▁expectancy	-11.296
▁cilia	-11.2962
▁clip	-11.2964
▁Wisconsin	-11.2969
▁configuration	-11.2969
▁Support	-11.298
▁statute	-11.298
▁Surgery	-11.2991
▁Malaysia	-11.2991
▁Portuguese	-11.3002
▁involuntary	-11.3002
▁Candida	-11.3003
▁neighborhood	-11.3003
▁electromagnetic	-11.3014
▁assembly	-11.3025
▁hypothyroidism	-11.3025
▁Brook	-11.3031
▁Tennessee	-11.3036
▁qualities	-11.3036
▁consuming	-11.3036
▁Server	-11.3045
▁supplied	-11.3047
▁testosterone	-11.3047
▁Unfortunately	-11.3059
▁automatic	-11.3059
▁hurt	-11.3059
▁retire	-11.3069
▁raising	-11.307
▁pizza	-11.3081
▁marble	-11.3088
▁triangle	-11.3093
septic	-11.3099
▁Factor	-11.31
▁neutron	-11.3104
▁hydroxide	-11.3104
▁aromatic	-11.3105
▁Development	-11.3107
▁Alternative	-11.3115
responsibilities	-11.3115
▁trading	-11.3116
▁laminate	-11.3116
▁mechanic	-11.3124
▁shrimp	-11.3127
▁warranty	-11.3127
▁heavily	-11.3127
▁glycogen	-11.3137
▁dozen	-11.3139
▁franc	-11.3144
▁endangered	-11.315
▁envelope	-11.315
▁thymine	-11.315
▁incident	-11.315
▁Clear	-11.3156
system	-11.3157
▁olfactory	-11.3161
claim	-11.3162
function	-11.3168
▁Chapter	-11.3173
▁forearm	-11.3174
▁schizophrenia	-11.3184
▁revolution	-11.3184
▁ovaries	-11.3184
nesthesiologist	-11.3195
▁aggregate	-11.3195
▁autonomic	-11.3195
▁ammonia	-11.3195
▁thrive	-11.3195
quarter	-11.3203
▁larynx	-11.3207
▁universe	-11.3207
▁chlorine	-11.3207
▁Harvard	-11.3218
▁align	-11.3222
▁Species	-11.323
▁Technology	-11.323
▁Jesus	-11.3231
▁shopping	-11.3232
▁vegetarian	-11.3241
▁Chronic	-11.3241
▁weapon	-11.3241
▁herpes	-11.3244
century	-11.325
▁methane	-11.3256
▁guess	-11.3257
▁erect	-11.326
▁knife	-11.3264
▁Airlines	-11.3265
lapse	-11.3274
▁flexibility	-11.3276
▁completion	-11.3276
▁dopamine	-11.3276
▁Complete	-11.3276
▁Catholic	-11.3287
▁approximate	-11.3289
uthorized	-11.3296
▁Nerve	-11.33
▁obesity	-11.3311
▁Insert	-11.3313
culture	-11.3318
1.5	-11.332
quot	-11.3327
▁Angel	-11.3328
▁nitrate	-11.3334
▁inventor	-11.3343
▁impossible	-11.3345
▁Mineral	-11.3347
▁Hormone	-11.3357
▁reptiles	-11.3357
▁resolve	-11.3357
▁scope	-11.3357
▁stove	-11.3361
▁aspirin	-11.3365
▁susceptible	-11.3369
▁victim	-11.3369
9.5	-11.3371
▁medicinal	-11.338
▁Picture	-11.3383
Saxon	-11.339
▁Schedule	-11.3392
correct	-11.3402
▁Ecuador	-11.3404
▁dehydration	-11.3404
▁alphabet	-11.3404
▁naming	-11.3404
▁grind	-11.3406
▁Essential	-11.3416
▁Philadelphia	-11.3416
▁avocado	-11.3416
▁Again	-11.3416
factor	-11.3422
▁antidepressant	-11.3427
▁rupture	-11.3427
▁suffix	-11.3427
▁Friday	-11.3427
electric	-11.3427
▁owl	-11.3429
▁Argentina	-11.3439
▁Silver	-11.3439
▁neither	-11.344
▁adv	-11.3442
▁turbine	-11.3447
▁grocery	-11.3451
▁enterprise	-11.3451
▁requiring	-11.3451
▁screw	-11.3463
▁gentle	-11.3464
▁puberty	-11.3474
▁DVD	-11.3474
▁encode	-11.3475
figure	-11.3485
▁physiological	-11.3486
▁measles	-11.3486
▁Puerto	-11.3486
▁Fresh	-11.3486
▁stabilize	-11.3498
▁parietal	-11.3498
▁reddish	-11.3498
▁interfere	-11.3507
▁stimulation	-11.351
▁Material	-11.3522
▁Pluto	-11.3522
▁cinnamon	-11.3545
▁approx	-11.3545
▁Polish	-11.3545
▁durable	-11.3545
▁Dollar	-11.3545
▁Field	-11.3545
▁blank	-11.3557
▁suburb	-11.356
▁consent	-11.3574
▁Estimate	-11.3581
▁judgment	-11.3581
▁Uranus	-11.3581
▁Avoid	-11.3581
▁anchor	-11.3587
▁flame	-11.3591
▁circulate	-11.3605
▁committee	-11.3605
▁parasitic	-11.3605
orrhea	-11.3605
▁cerebrum	-11.3617
▁legislature	-11.3617
▁synapse	-11.3629
▁Therapy	-11.3629
▁neurological	-11.363
course	-11.3631
▁adverse	-11.3631
▁placenta	-11.3647
▁Carbohydrates	-11.3653
▁Indeed	-11.3656
▁Garden	-11.3656
▁Parliament	-11.3677
▁thrombo	-11.3681
▁Switzerland	-11.3689
▁Teacher	-11.3689
symmetric	-11.3701
▁Staphylococcus	-11.3701
▁licensing	-11.3701
▁hidden	-11.3701
▁wildlife	-11.3702
▁Update	-11.3705
Phys	-11.3707
▁sunshine	-11.3713
▁Requirements	-11.3737
▁Disorder	-11.3737
▁historic	-11.3744
▁Czech	-11.3749
oplasty	-11.3749
▁spiral	-11.375
▁Fungi	-11.375
▁phyto	-11.3754
▁numbness	-11.3761
▁vesicle	-11.3761
▁rectum	-11.3773
while	-11.3775
▁Thailand	-11.3786
▁phospholipid	-11.3786
▁tuberculosis	-11.3786
▁separation	-11.3786
▁compartment	-11.3786
▁sponsor	-11.3786
▁Denmark	-11.3799
ethyl	-11.3803
▁terrestrial	-11.381
▁intervention	-11.381
▁perception	-11.381
▁averaging	-11.3822
▁plumbing	-11.3822
school	-11.3824
▁flora	-11.3825
▁diffusion	-11.3834
▁recipient	-11.3846
▁bilayer	-11.3847
▁Wilson	-11.3847
▁Oklahoma	-11.3859
▁administrator	-11.3859
▁intelligence	-11.3871
▁Quick	-11.3876
1.1	-11.3877
▁inexpensive	-11.3883
▁opiate	-11.3883
▁kilo	-11.3893
▁advertise	-11.3896
▁lobster	-11.3896
▁cytosine	-11.3896
▁instruction	-11.3906
▁bodily	-11.3908
▁Independence	-11.392
▁festival	-11.392
▁peninsula	-11.3933
▁Convention	-11.3933
▁Settings	-11.3945
▁sensitivity	-11.3957
Noun	-11.396
▁malignant	-11.397
▁maturity	-11.397
▁unicellular	-11.397
scopic	-11.3982
▁Safety	-11.3982
▁accu	-11.3994
▁squirrel	-11.3994
▁Diabetes	-11.4019
▁agriculture	-11.4019
ethylene	-11.4031
▁opioid	-11.4032
▁athletic	-11.4032
▁cruise	-11.4032
▁antagonist	-11.4044
▁availability	-11.4044
▁entrance	-11.4044
▁PayScale	-11.4044
▁Primary	-11.4044
▁butterfly	-11.4044
▁indigenous	-11.4057
▁suppress	-11.4057
sumption	-11.4065
▁Climate	-11.4069
cultural	-11.4073
6.5	-11.408
▁cucumber	-11.4082
▁steep	-11.4099
▁mask	-11.4102
▁Agriculture	-11.4107
▁squamous	-11.4107
▁Vegas	-11.4107
▁sucrose	-11.4119
▁sheath	-11.412
▁guanine	-11.4132
▁Dragon	-11.4132
▁Commercial	-11.4144
▁elsewhere	-11.4145
▁Professor	-11.4157
▁Museum	-11.4157
▁choosing	-11.4157
▁coarse	-11.4158
carotene	-11.4159
▁staph	-11.4159
▁desktop	-11.417
▁disappear	-11.4182
▁Dubai	-11.4182
▁suspension	-11.4195
▁psoriasis	-11.4208
▁dominate	-11.422
▁dessert	-11.422
▁adverb	-11.4233
▁Contribution	-11.4246
▁Roosevelt	-11.4246
▁audience	-11.4246
▁studio	-11.4246
▁Summer	-11.4246
▁oats	-11.4249
▁rinse	-11.425
▁lentils	-11.4259
▁mercury	-11.4259
▁reputation	-11.4259
AIDS	-11.4274
▁american	-11.4286
piece	-11.429
digest	-11.4291
▁newspaper	-11.4297
▁elderly	-11.4297
▁mutual	-11.4297
▁fixture	-11.4311
▁observe	-11.4317
▁Explorer	-11.4322
▁batteries	-11.4322
▁dermatitis	-11.4335
▁Neptune	-11.4348
▁Iraq	-11.4348
▁Committee	-11.4361
▁democracy	-11.4374
▁narcotic	-11.4374
▁Belgium	-11.4374
▁Colombia	-11.4374
▁Utah	-11.4374
▁Score	-11.4379
▁threshold	-11.4387
▁Portugal	-11.4387
▁Swedish	-11.44
▁Studies	-11.44
▁excrete	-11.4401
▁phenotype	-11.4413
▁resolution	-11.4413
▁crawl	-11.4413
,750	-11.4423
▁Sanskrit	-11.4426
▁marinade	-11.4426
▁Birth	-11.4426
▁Physician	-11.4439
▁automobile	-11.4439
▁Mercury	-11.4439
▁Content	-11.4439
▁Lewis	-11.4439
▁Girl	-11.4439
▁dispute	-11.4455
vitamin	-11.4459
▁Kidney	-11.4465
▁completing	-11.4465
▁3/4	-11.4465
▁monosaccharide	-11.4466
▁Continue	-11.4478
▁dialog	-11.4478
▁doubt	-11.4478
▁defeat	-11.448
▁myelin	-11.4482
▁privacy	-11.4491
▁translated	-11.4491
▁Think	-11.4491
▁prolonged	-11.4504
install	-11.4512
▁strategic	-11.4517
▁paralegal	-11.4517
▁Abraham	-11.4556
▁surprising	-11.4569
▁Condition	-11.4569
▁Fruit	-11.4569
induced	-11.4571
meaning	-11.4579
▁execution	-11.4582
▁fertilization	-11.4582
▁medieval	-11.4582
▁timing	-11.4583
▁aureus	-11.4585
▁alkali	-11.4593
▁module	-11.4596
▁congenital	-11.4609
▁fissure	-11.4609
▁Guinea	-11.4609
▁Options	-11.4635
▁vacuole	-11.4648
▁addiction	-11.4648
▁hygienist	-11.4662
▁pharmaceutical	-11.4662
▁ketone	-11.4676
▁collapse	-11.4689
▁YouTube	-11.4702
▁delicate	-11.4702
molecule	-11.4711
▁converge	-11.4713
▁Hemisphere	-11.4715
▁immigration	-11.4715
▁proximal	-11.4715
▁Pokemon	-11.4715
▁Agency	-11.4715
▁pursue	-11.4715
▁magnitude	-11.4728
▁Phosph	-11.4728
▁Alexander	-11.4742
▁vendor	-11.4742
▁Background	-11.4742
▁argue	-11.4745
▁Reduce	-11.4747
▁LPN	-11.4755
▁molten	-11.4755
▁intolerance	-11.4768
▁Android	-11.4769
-1/2	-11.4782
▁appointed	-11.4795
▁recognition	-11.4795
▁therapeutic	-11.4795
▁library	-11.4795
▁comparable	-11.4795
▁preparing	-11.4795
▁Index	-11.4797
fruit	-11.4805
▁goddess	-11.4809
▁spoil	-11.4809
▁untreated	-11.4822
▁Potassium	-11.4836
▁Consult	-11.4836
▁Amsterdam	-11.4849
▁immigrant	-11.4863
▁Obama	-11.4863
▁antenna	-11.4863
resistant	-11.4887
▁sympathetic	-11.489
▁modification	-11.489
▁Operation	-11.489
▁exert	-11.4902
operative	-11.4904
▁technologies	-11.4917
▁steady	-11.4917
▁inspired	-11.4917
▁aggressive	-11.4931
▁aneurysm	-11.4931
▁asbestos	-11.4931
▁Twitter	-11.4944
▁english	-11.4944
▁fertility	-11.4944
▁Bengal	-11.4945
growth	-11.4956
▁Instructions	-11.4958
▁carcinoma	-11.4958
▁Syndrome	-11.4972
▁preservative	-11.4985
▁DIY	-11.4985
▁Copper	-11.4986
friendly	-11.4989
▁Insulin	-11.4999
▁tunnel	-11.5013
▁Queensland	-11.5013
▁Iowa	-11.5014
▁Versailles	-11.5027
▁cigarette	-11.5027
▁Measure	-11.5027
▁erosion	-11.5027
▁drift	-11.5027
▁Saturday	-11.504
▁leukemia	-11.504
▁argument	-11.504
▁adhere	-11.5047
▁150436	-11.5054
▁wisdom	-11.5054
▁feces	-11.5056
▁generator	-11.5068
▁Philippines	-11.5082
▁awareness	-11.5082
▁chapter	-11.511
▁Expert	-11.511
▁committed	-11.5123
▁precursor	-11.5123
▁technologist	-11.5123
▁empire	-11.5124
▁diffuse	-11.5137
▁entertainment	-11.5151
▁Increase	-11.5151
▁stimuli	-11.5165
nutrient	-11.5179
▁appraisal	-11.5179
▁intellectual	-11.5179
***	-11.5179
synthetic	-11.5193
▁tibia	-11.5194
▁heavier	-11.5207
▁Flower	-11.5208
vastatin	-11.522
▁authentic	-11.5221
▁cataract	-11.5221
▁nickel	-11.5221
▁Synonym	-11.5236
▁accommodation	-11.5249
▁transparent	-11.5249
▁invertebrates	-11.5263
▁financing	-11.5263
Latin	-11.5265
▁basket	-11.5277
▁Streptococcus	-11.5278
▁gauge	-11.5278
construction	-11.5278
▁Combine	-11.5279
▁biopsy	-11.5284
▁cortisol	-11.5292
▁filtration	-11.5292
▁territories	-11.5292
▁groin	-11.5292
▁Determin	-11.5296
▁activation	-11.5306
▁Magnesium	-11.532
▁embedded	-11.532
▁irritate	-11.532
▁worst	-11.532
▁talent	-11.5321
pronounced	-11.5335
▁fellow	-11.5348
▁chopped	-11.5348
▁feldspar	-11.5363
▁felony	-11.5363
producing	-11.5364
▁Alzheimer	-11.5377
▁Approximately	-11.5377
▁Swiss	-11.5377
▁improving	-11.5391
▁Tuesday	-11.5405
▁lettuce	-11.5405
▁Finally	-11.5406
▁nodule	-11.5406
▁possibility	-11.542
▁buried	-11.542
NSAID	-11.5425
▁acquisition	-11.5434
▁Ultra	-11.5434
▁experiencing	-11.5448
▁Revenue	-11.5448
▁pertussis	-11.5463
▁Police	-11.5463
▁Diamond	-11.5477
▁dolphin	-11.5477
▁negotiate	-11.5477
▁thymus	-11.5477
▁dietitian	-11.5477
▁autosomal	-11.5491
▁Diego	-11.5492
▁integral	-11.5492
▁cushion	-11.552
▁quiet	-11.5521
▁uranium	-11.5535
▁witness	-11.5549
▁fraud	-11.5549
stranded	-11.5552
▁nautical	-11.5578
▁Sydney	-11.5593
▁deciliter	-11.5593
▁frequencies	-11.5593
▁abscess	-11.5593
▁unpleasant	-11.5608
▁alveoli	-11.5608
▁heritage	-11.5608
▁compiled	-11.5608
▁glycolysis	-11.5622
▁migraine	-11.5622
▁persistent	-11.5622
▁Speed	-11.5625
▁Declaration	-11.5637
▁bankruptcy	-11.5637
▁singular	-11.5637
▁diabetic	-11.5651
▁acquire	-11.566
▁beneficiary	-11.5666
▁savanna	-11.5666
▁Parkinson	-11.5666
▁victory	-11.5666
birth	-11.5671
▁Thursday	-11.5681
▁receipt	-11.5681
▁Compensation	-11.5695
solving	-11.5696
▁Province	-11.571
▁behaviour	-11.571
▁keratin	-11.571
▁significance	-11.571
▁celery	-11.571
▁hurricane	-11.5725
▁Movement	-11.5725
▁pylori	-11.5726
▁adhesive	-11.574
▁slang	-11.574
▁tingling	-11.5755
▁Aboriginal	-11.5769
▁Vancouver	-11.5769
▁replicate	-11.5769
Figure	-11.5774
oriented	-11.5782
▁tolerate	-11.5783
▁struggle	-11.5784
▁Document	-11.5784
▁Century	-11.5799
▁diminutive	-11.5799
▁Syria	-11.5803
▁constellation	-11.5829
▁homeostasis	-11.5829
▁forecast	-11.5829
▁meteor	-11.5829
▁tolerance	-11.5844
▁energ	-11.5865
▁Cambridge	-11.5874
▁neuropathy	-11.5874
▁anthropo	-11.5874
▁casual	-11.5874
▁stimulant	-11.5889
▁bracket	-11.5889
▁uncertain	-11.5904
▁carotid	-11.5904
▁friction	-11.5904
▁miscarriage	-11.5919
▁modify	-11.5919
▁regime	-11.5919
▁angina	-11.5923
▁Immigration	-11.5949
▁sclerosis	-11.5949
▁visceral	-11.5949
▁clutch	-11.5949
▁Orlando	-11.5949
▁stump	-11.5949
▁Architect	-11.5949
▁voting	-11.5949
!!!	-11.5949
▁Inflammation	-11.5964
▁residue	-11.5964
▁cousin	-11.5965
▁bicarbonate	-11.5979
▁convenience	-11.5979
▁suspended	-11.5979
▁detergent	-11.5979
▁Golgi	-11.5979
▁Policy	-11.5979
▁acetylcholine	-11.5994
▁degenerative	-11.5994
▁decompose	-11.5994
▁Therapist	-11.6009
▁investigation	-11.6009
▁cheek	-11.6009
▁fulfill	-11.6009
▁dermis	-11.6009
“	-11.6017
▁bureau	-11.6025
▁yarn	-11.6025
▁98.6	-11.604
▁reflux	-11.604
▁agonist	-11.6042
▁gradient	-11.6055
▁comprising	-11.6055
▁Capital	-11.6055
▁Sahara	-11.6055
▁adenosine	-11.607
▁lipoprotein	-11.607
▁invasion	-11.6071
▁versatile	-11.6086
▁reinforce	-11.6086
▁essay	-11.6086
▁Sweet	-11.6086
▁stereo	-11.6092
______________	-11.6101
▁unwanted	-11.6101
▁remedy	-11.6101
▁osteoporosis	-11.6116
▁crowd	-11.6117
▁accuracy	-11.6132
▁oyster	-11.6132
▁Famous	-11.6132
▁entities	-11.6132
▁foliage	-11.6147
▁glaze	-11.6149
▁Text	-11.6154
▁Nuclear	-11.6162
▁legislative	-11.6162
enzyme	-11.6171
▁violent	-11.6178
▁kernel	-11.6193
▁globe	-11.6193
▁apparatus	-11.6209
▁detox	-11.6215
degree	-11.6223
▁timber	-11.6224
▁Daily	-11.6225
▁Acute	-11.6225
▁Ethiopia	-11.624
▁Guatemala	-11.624
▁Square	-11.624
efficient	-11.6249
▁minimize	-11.6256
either	-11.6256
▁Employer	-11.6271
▁Jefferson	-11.6271
▁discrimination	-11.6271
▁luxury	-11.6271
▁retention	-11.6271
▁Hieroglyphic	-11.6287
▁ovary	-11.6287
▁Private	-11.6302
▁defrost	-11.6318
▁vibration	-11.6318
▁striated	-11.6318
▁Employment	-11.6333
▁occupied	-11.6333
▁guidance	-11.6333
▁champion	-11.6333
▁absent	-11.6334
▁Death	-11.6334
average	-11.6344
▁admitted	-11.6349
▁Surgeon	-11.6365
▁rabies	-11.6365
▁strategies	-11.6381
▁troops	-11.6391
effective	-11.6391
▁Skeletal	-11.6396
▁chemotherapy	-11.6396
▁sciatic	-11.6396
▁basil	-11.6397
receptor	-11.641
▁landlord	-11.6412
▁solute	-11.6413
▁Glut	-11.6415
▁Biblical	-11.6428
▁brittle	-11.6428
▁welcome	-11.6428
▁Entry	-11.6428
▁Technical	-11.6444
▁identifies	-11.6444
▁chimney	-11.646
▁Toronto	-11.646
▁incubate	-11.646
▁helium	-11.646
thorax	-11.6461
▁Employee	-11.6476
▁reservoir	-11.6476
▁execute	-11.6476
▁refuse	-11.6477
oscope	-11.6481
▁museum	-11.6492
▁veneer	-11.6492
▁delta	-11.6492
family	-11.6503
natural	-11.6504
▁abundance	-11.6523
▁burial	-11.6524
▁Spirit	-11.654
▁lichen	-11.654
▁migrate	-11.654
▁favour	-11.6556
▁alligator	-11.6556
▁premier	-11.6556
▁cervix	-11.6572
▁collaborat	-11.6572
▁emphasize	-11.6572
quartile	-11.6572
▁precede	-11.6588
▁Commonwealth	-11.6588
▁Jamaica	-11.6588
▁eBay	-11.6588
▁glaucoma	-11.6604
▁nicotine	-11.6604
▁Studio	-11.6604
▁veteran	-11.6604
▁parsley	-11.6604
▁Minimum	-11.662
▁Together	-11.662
▁combining	-11.662
▁iPod	-11.662
▁Wednesday	-11.6636
▁compliance	-11.6636
▁promotion	-11.6636
wikipedia	-11.6636
▁creative	-11.6636
▁defining	-11.6636
▁Agreement	-11.6652
▁ultraviolet	-11.6652
▁laxative	-11.6652
▁populated	-11.6652
▁Philip	-11.6652
▁murder	-11.6652
▁ultimate	-11.6662
▁violation	-11.6669
▁anatomical	-11.6669
otomy	-11.6678
▁Toyota	-11.6685
▁Senior	-11.6685
▁afternoon	-11.6685
▁Daniel	-11.6702
dimensional	-11.6705
▁Wolf	-11.6709
chemistry	-11.6715
▁Hemoglobin	-11.6717
▁glomerulus	-11.6717
▁Tokyo	-11.6717
▁Construction	-11.6734
▁tetanus	-11.6734
▁uterine	-11.6734
▁Characteristics	-11.675
▁tundra	-11.675
▁Southwest	-11.6766
▁CostHelper	-11.6766
▁Venezuela	-11.6766
▁emphasis	-11.6766
▁condense	-11.6769
▁worship	-11.6783
▁ventilation	-11.6783
▁buffer	-11.6783
▁Kennedy	-11.6799
▁simultaneous	-11.6799
▁grease	-11.6799
▁Enzyme	-11.6815
▁Vegetable	-11.6815
▁fought	-11.6816
omycin	-11.682
▁genotype	-11.6832
▁succeed	-11.6832
▁Should	-11.6832
cortico	-11.6836
▁compromise	-11.6849
hawk	-11.6856
▁brisket	-11.6865
▁infrared	-11.6865
▁recognise	-11.6882
▁subsidiary	-11.6882
▁incurred	-11.6882
▁dementia	-11.6898
▁clerk	-11.6898
continent	-11.6914
▁eligibility	-11.6915
▁bleach	-11.6915
▁spike	-11.6916
▁demonstrat	-11.6921
although	-11.6931
▁catalyst	-11.6931
▁vertigo	-11.6931
▁imagine	-11.6931
▁accessories	-11.6931
▁Economic	-11.6948
▁contemporary	-11.6948
▁biceps	-11.6948
▁Everest	-11.6948
▁gamma	-11.6948
▁ladder	-11.6948
▁longitude	-11.6965
▁securities	-11.6965
▁Johann	-11.6965
▁Madagascar	-11.6981
▁arthropod	-11.6981
▁optimum	-11.6981
▁abstract	-11.6998
steroidal	-11.701
▁haploid	-11.7015
▁assignment	-11.7015
▁zebra	-11.7015
largest	-11.7015
▁companion	-11.7015
▁Quebec	-11.7032
▁ethics	-11.7032
▁HVAC	-11.7049
▁violence	-11.7049
▁remedies	-11.7049
▁licence	-11.7049
ologies	-11.7055
▁Pregnancy	-11.7065
▁appreciate	-11.7065
▁aquarium	-11.7065
▁impression	-11.7066
▁impaired	-11.7066
▁Variant	-11.7066
▁Command	-11.7066
▁bamboo	-11.7082
▁elaborate	-11.7082
▁Journal	-11.7082
▁dendrite	-11.7082
▁Hindi	-11.7083
▁merchant	-11.7099
▁nourish	-11.7099
▁Arkansas	-11.7116
▁continuing	-11.7116
▁credential	-11.7116
▁enormous	-11.7116
▁influential	-11.7116
▁satisfy	-11.7116
▁sovereign	-11.7116
£	-12.226
‘	-12.6208
